<pad>	0
<unk>	0
<s>	0
</s>	0
▁t	-0
he	-1
▁a	-2
▁s	-3
▁w	-4
nd	-5
▁the	-6
ed	-7
▁to	-8
▁b	-9
▁and	-10
▁h	-11
in	-12
▁f	-13
▁wa	-14
▁T	-15
it	-16
re	-17
ou	-18
▁l	-19
▁d	-20
▁c	-21
▁he	-22
▁p	-23
ay	-24
▁m	-25
er	-26
▁was	-27
om	-28
im	-29
on	-30
il	-31
▁The	-32
id	-33
is	-34
at	-35
ar	-36
▁sa	-37
▁n	-38
▁g	-39
ing	-40
▁ha	-41
▁S	-42
en	-43
an	-44
or	-45
le	-46
ll	-47
▁th	-48
▁L	-49
ot	-50
ily	-51
▁her	-52
▁it	-53
▁"	-54
am	-55
ir	-56
et	-57
▁Lily	-58
▁u	-59
▁O	-60
▁On	-61
▁H	-62
▁in	-63
ut	-64
▁pl	-65
▁Tim	-66
ri	-67
ow	-68
▁day	-69
▁be	-70
ver	-71
ce	-72
ith	-73
ig	-74
▁o	-75
▁with	-76
▁said	-77
▁play	-78
pp	-79
▁She	-80
ck	-81
ld	-82
my	-83
▁They	-84
▁e	-85
▁his	-86
▁He	-87
oo	-88
▁y	-89
▁st	-90
▁up	-91
▁that	-92
▁r	-93
▁on	-94
ke	-95
ked	-96
st	-97
▁mom	-98
▁she	-99
▁I	-100
ve	-101
nt	-102
itt	-103
very	-104
▁you	-105
▁happ	-106
▁they	-107
end	-108
▁B	-109
ime	-110
▁big	-111
▁fri	-112
se	-113
▁of	-114
▁friend	-115
ittle	-116
▁little	-117
ent	-118
▁time	-119
ad	-120
un	-121
▁had	-122
▁we	-123
▁there	-124
▁so	-125
▁One	-126
her	-127
▁for	-128
all	-129
ould	-130
▁nam	-131
▁M	-132
▁want	-133
▁happy	-134
▁saw	-135
▁named	-136
ved	-137
▁li	-138
▁but	-139
▁very	-140
▁do	-141
▁lo	-142
▁Once	-143
ch	-144
▁ne	-145
▁Timmy	-146
▁upon	-147
es	-148
out	-149
▁k	-150
▁sh	-151
ound	-152
."	-153
ly	-154
▁A	-155
▁not	-156
▁wh	-157
el	-158
ide	-159
ome	-160
ht	-161
al	-162
▁re	-163
▁bo	-164
ter	-165
▁went	-166
▁as	-167
▁an	-168
▁hel	-169
▁friends	-170
▁help	-171
▁too	-172
ake	-173
!"	-174
▁were	-175
▁loved	-176
▁wanted	-177
▁sm	-178
ird	-179
ore	-180
ack	-181
▁bird	-182
irl	-183
ry	-184
▁did	-185
▁girl	-186
▁toy	-187
ra	-188
▁all	-189
ug	-190
ind	-191
▁him	-192
▁It	-193
ur	-194
ame	-195
▁loo	-196
▁could	-197
rom	-198
▁Tom	-199
▁j	-200
▁out	-201
way	-202
get	-203
hen	-204
ted	-205
ec	-206
▁at	-207
gether	-208
▁is	-209
▁kn	-210
▁go	-211
ain	-212
▁se	-213
▁together	-214
▁fun	-215
ard	-216
▁But	-217
ark	-218
ul	-219
ood	-220
ue	-221
▁can	-222
side	-223
▁le	-224
ic	-225
?"	-226
ill	-227
ax	-228
▁tre	-229
▁asked	-230
▁boy	-231
▁sad	-232
▁Max	-233
hed	-234
ght	-235
▁W	-236
ful	-237
elt	-238
▁F	-239
▁ro	-240
▁back	-241
own	-242
▁star	-243
▁felt	-244
▁bec	-245
▁have	-246
▁them	-247
▁ca	-248
▁cat	-249
other	-250
one	-251
▁al	-252
▁sc	-253
▁sp	-254
▁found	-255
▁cl	-256
▁their	-257
um	-258
▁dog	-259
▁man	-260
round	-261
▁played	-262
hing	-263
ro	-264
▁park	-265
ick	-266
ong	-267
▁looked	-268
▁smil	-269
▁car	-270
▁ball	-271
▁came	-272
▁me	-273
▁started	-274
▁are	-275
▁fe	-276
▁fa	-277
▁would	-278
▁like	-279
omet	-280
▁tree	-281
▁new	-282
▁mommy	-283
▁ag	-284
▁ex	-285
ss	-286
ared	-287
▁what	-288
ure	-289
▁didn	-290
ings	-291
▁Ben	-292
ie	-293
▁make	-294
▁somet	-295
dd	-296
▁see	-297
▁no	-298
▁J	-299
ny	-300
ought	-301
▁playing	-302
ried	-303
ade	-304
▁wor	-305
▁some	-306
▁home	-307
ice	-308
op	-309
▁when	-310
ouse	-311
ag	-312
▁mu	-313
▁got	-314
You	-315
▁made	-316
▁co	-317
▁away	-318
if	-319
▁wal	-320
▁then	-321
▁smiled	-322
▁other	-323
▁again	-324
▁every	-325
▁good	-326
ty	-327
▁la	-328
king	-329
ned	-330
▁outside	-331
▁toys	-332
▁find	-333
▁from	-334
ble	-335
au	-336
ave	-337
▁around	-338
ook	-339
▁put	-340
▁fl	-341
ened	-342
ep	-343
▁Sue	-344
ways	-345
ause	-346
▁something	-347
,"	-348
uck	-349
ight	-350
▁always	-351
ally	-352
▁From	-353
▁because	-354
▁lear	-355
▁thought	-356
▁things	-357
oud	-358
▁ran	-359
▁liked	-360
▁scared	-361
ell	-362
▁who	-363
▁down	-364
▁sw	-365
udd	-366
▁Her	-367
▁get	-368
▁Sam	-369
▁kne	-370
as	-371
▁ab	-372
▁my	-373
▁took	-374
ant	-375
ret	-376
▁dec	-377
ust	-378
▁about	-379
ach	-380
▁know	-381
ist	-382
pl	-383
▁eat	-384
▁ch	-385
▁your	-386
▁house	-387
▁told	-388
fter	-389
ited	-390
▁care	-391
▁small	-392
▁knew	-393
▁tried	-394
ank	-395
ided	-396
pped	-397
hat	-398
▁any	-399
▁decided	-400
▁br	-401
▁Sp	-402
▁bl	-403
▁pr	-404
ish	-405
ite	-406
▁bu	-407
▁lot	-408
▁int	-409
fe	-410
▁So	-411
▁learned	-412
▁say	-413
▁You	-414
▁dad	-415
ous	-416
ile	-417
▁exc	-418
▁pret	-419
udden	-420
qu	-421
▁Spot	-422
uddenly	-423
▁ta	-424
▁v	-425
▁When	-426
ise	-427
▁sun	-428
ers	-429
▁much	-430
▁laug	-431
▁more	-432
ob	-433
▁feel	-434
are	-435
▁lived	-436
nder	-437
▁ke	-438
▁box	-439
ive	-440
▁will	-441
▁po	-442
ace	-443
▁show	-444
ven	-445
▁hug	-446
ump	-447
▁into	-448
uc	-449
▁un	-450
▁Mom	-451
ia	-452
▁D	-453
▁gave	-454
urp	-455
▁one	-456
▁Suddenly	-457
▁excited	-458
▁need	-459
▁water	-460
etter	-461
▁inside	-462
▁ho	-463
▁As	-464
oth	-465
▁how	-466
ap	-467
ort	-468
ate	-469
▁room	-470
▁gra	-471
▁tr	-472
dy	-473
▁And	-474
▁pick	-475
▁couldn	-476
▁gre	-477
▁E	-478
▁pe	-479
▁cle	-480
▁if	-481
▁many	-482
▁His	-483
▁take	-484
▁look	-485
our	-486
▁long	-487
▁pretty	-488
▁pu	-489
▁became	-490
▁Mia	-491
urpr	-492
urt	-493
▁op	-494
iz	-495
▁over	-496
▁run	-497
▁sk	-498
▁surpr	-499
▁best	-500
here	-501
▁better	-502
▁bear	-503
bb	-504
▁than	-505
lf	-506
▁mo	-507
▁im	-508
ised	-509
▁red	-510
ged	-511
lew	-512
▁just	-513
▁kind	-514
▁fi	-515
ma	-516
Th	-517
▁flow	-518
ge	-519
▁gr	-520
ink	-521
iny	-522
▁str	-523
imal	-524
▁animal	-525
Yes	-526
▁even	-527
▁sl	-528
▁this	-529
em	-530
▁end	-531
▁fast	-532
▁clean	-533
▁laughed	-534
▁jump	-535
sed	-536
▁careful	-537
▁both	-538
▁wat	-539
▁dre	-540
ched	-541
▁Bob	-542
▁list	-543
▁rock	-544
ucy	-545
▁or	-546
▁nice	-547
ber	-548
▁Lucy	-549
ving	-550
ess	-551
▁After	-552
▁never	-553
Can	-554
▁clo	-555
▁tow	-556
▁imp	-557
▁by	-558
▁under	-559
▁Then	-560
▁happened	-561
ion	-562
▁says	-563
▁heard	-564
▁old	-565
▁fly	-566
ct	-567
▁walked	-568
pec	-569
▁sn	-570
ine	-571
ase	-572
▁hurt	-573
▁safe	-574
▁animals	-575
▁com	-576
▁en	-577
▁proud	-578
▁try	-579
ied	-580
igh	-581
▁te	-582
▁ri	-583
▁fore	-584
ft	-585
▁hand	-586
▁col	-587
▁don	-588
▁sky	-589
▁lots	-590
▁flew	-591
orry	-592
▁dan	-593
Thank	-594
kay	-595
ara	-596
▁while	-597
▁fam	-598
▁bea	-599
▁food	-600
▁fo	-601
▁fish	-602
▁stor	-603
▁ground	-604
▁ra	-605
▁let	-606
▁each	-607
▁repl	-608
oug	-609
ough	-610
▁che	-611
▁picked	-612
▁pic	-613
▁sorry	-614
▁rem	-615
illy	-616
▁ide	-617
▁its	-618
ies	-619
▁shiny	-620
▁off	-621
▁idea	-622
ady	-623
▁real	-624
▁bad	-625
ex	-626
ff	-627
▁We	-628
by	-629
▁replied	-630
sh	-631
▁come	-632
gry	-633
▁share	-634
▁tur	-635
imb	-636
▁Jack	-637
▁Sara	-638
▁climb	-639
▁Benny	-640
ial	-641
ool	-642
▁import	-643
ture	-644
▁way	-645
▁loud	-646
more	-647
▁anymore	-648
▁spec	-649
▁special	-650
▁family	-651
▁unt	-652
ning	-653
▁bro	-654
rm	-655
▁beaut	-656
self	-657
▁important	-658
▁wind	-659
▁thanked	-660
▁ad	-661
▁hugged	-662
and	-663
▁hard	-664
▁still	-665
▁dra	-666
▁An	-667
▁until	-668
ild	-669
eet	-670
▁surprised	-671
▁tal	-672
▁forest	-673
iful	-674
arden	-675
▁beautiful	-676
▁garden	-677
▁helped	-678
▁love	-679
pected	-680
▁Ann	-681
▁being	-682
ized	-683
▁qu	-684
▁near	-685
▁gl	-686
ople	-687
ip	-688
expected	-689
▁unexpected	-690
hy	-691
▁cu	-692
▁tw	-693
▁fell	-694
ummy	-695
vor	-696
▁con	-697
▁keep	-698
▁picture	-699
▁walk	-700
▁expl	-701
▁book	-702
▁after	-703
vent	-704
▁color	-705
▁In	-706
xt	-707
▁next	-708
hes	-709
▁people	-710
▁give	-711
▁bug	-712
▁showed	-713
▁favor	-714
▁favorite	-715
▁now	-716
▁cry	-717
▁high	-718
▁N	-719
▁fin	-720
▁ma	-721
▁far	-722
ember	-723
ak	-724
▁par	-725
▁store	-726
▁going	-727
▁cre	-728
unny	-729
▁mag	-730
▁app	-731
▁should	-732
▁cake	-733
ock	-734
ished	-735
▁listen	-736
▁Anna	-737
▁call	-738
▁am	-739
▁great	-740
▁Amy	-741
▁lost	-742
fore	-743
▁stay	-744
Let	-745
▁remember	-746
▁wo	-747
ull	-748
ary	-749
▁squ	-750
▁rain	-751
▁ac	-752
▁cook	-753
▁jo	-754
ger	-755
pt	-756
▁bra	-757
▁fr	-758
▁bed	-759
▁P	-760
rel	-761
▁pa	-762
▁own	-763
▁opened	-764
▁truck	-765
▁before	-766
▁ever	-767
▁strong	-768
age	-769
▁sto	-770
▁butter	-771
▁flowers	-772
▁okay	-773
▁Every	-774
▁blue	-775
▁door	-776
▁fix	-777
▁watch	-778
▁worry	-779
What	-780
It	-781
uff	-782
▁noise	-783
▁where	-784
ater	-785
Don	-786
▁de	-787
▁place	-788
▁boat	-789
▁doll	-790
▁realized	-791
les	-792
▁wr	-793
lease	-794
bbit	-795
▁ate	-796
No	-797
eddy	-798
▁mor	-799
imes	-800
▁story	-801
▁magic	-802
▁advent	-803
▁Let	-804
▁yummy	-805
be	-806
Mom	-807
thing	-808
▁Billy	-809
▁rabbit	-810
leep	-811
▁met	-812
▁R	-813
oon	-814
▁wait	-815
▁leave	-816
▁butterf	-817
▁happily	-818
able	-819
▁tra	-820
▁Jo	-821
▁bunny	-822
▁catch	-823
▁fro	-824
ting	-825
uch	-826
owl	-827
▁mouse	-828
▁bre	-829
▁dress	-830
irrel	-831
so	-832
▁draw	-833
▁Fin	-834
▁C	-835
▁also	-836
▁jumped	-837
▁mon	-838
▁face	-839
▁others	-840
▁stopped	-841
ens	-842
▁Sally	-843
▁squirrel	-844
▁everyone	-845
▁stick	-846
▁brave	-847
ught	-848
That	-849
▁called	-850
▁sing	-851
▁sat	-852
irst	-853
ane	-854
▁kid	-855
▁frog	-856
▁adventure	-857
▁cont	-858
▁kept	-859
ious	-860
▁game	-861
▁needed	-862
▁butterfly	-863
▁use	-864
▁soon	-865
ired	-866
ndma	-867
▁warm	-868
led	-869
▁slide	-870
▁sometimes	-871
▁walking	-872
▁sand	-873
▁right	-874
ppy	-875
oy	-876
▁having	-877
▁forg	-878
▁feeling	-879
▁pain	-880
▁pie	-881
▁dif	-882
▁flower	-883
uffy	-884
▁rest	-885
▁ey	-886
▁thr	-887
▁Mommy	-888
dded	-889
▁hear	-890
▁Th	-891
ken	-892
▁angry	-893
▁night	-894
▁work	-895
▁remembered	-896
ol	-897
day	-898
Wow	-899
▁At	-900
ued	-901
▁ice	-902
ath	-903
▁Fl	-904
▁kids	-905
▁Can	-906
zy	-907
▁Wh	-908
iced	-909
joy	-910
▁dis	-911
▁open	-912
▁sure	-913
▁thre	-914
▁tri	-915
Look	-916
▁our	-917
▁smile	-918
▁tired	-919
▁mean	-920
ange	-921
itc	-922
▁us	-923
▁buy	-924
▁soft	-925
▁din	-926
▁hat	-927
▁cr	-928
us	-929
▁birds	-930
irt	-931
▁cra	-932
▁used	-933
▁prom	-934
▁head	-935
▁fire	-936
▁sleep	-937
▁looking	-938
ster	-939
▁beh	-940
▁del	-941
▁brother	-942
ner	-943
▁first	-944
▁enjoy	-945
▁contin	-946
▁ba	-947
▁green	-948
▁hole	-949
▁clos	-950
▁sound	-951
itchen	-952
▁kitchen	-953
▁ask	-954
▁lady	-955
▁hands	-956
ount	-957
▁wear	-958
gan	-959
▁Do	-960
uit	-961
ng	-962
▁nodded	-963
Hi	-964
▁G	-965
▁watched	-966
▁cut	-967
▁continued	-968
▁prin	-969
▁eyes	-970
▁making	-971
▁z	-972
▁mess	-973
▁duck	-974
▁party	-975
▁funny	-976
ello	-977
▁flo	-978
Hello	-979
fere	-980
▁differe	-981
llow	-982
▁dr	-983
ident	-984
▁bel	-985
▁town	-986
itty	-987
▁tast	-988
▁yell	-989
▁Mr	-990
▁cand	-991
air	-992
▁tell	-993
▁mis	-994
▁acc	-995
▁piece	-996
▁Fluffy	-997
ient	-998
▁cried	-999
que	-1000
▁moral	-1001
maz	-1002
▁two	-1003
▁dro	-1004
▁amaz	-1005
▁noticed	-1006
▁hid	-1007
▁pond	-1008
ear	-1009
▁worked	-1010
▁cold	-1011
▁swim	-1012
▁read	-1013
▁hot	-1014
▁accident	-1015
▁broken	-1016
▁bri	-1017
▁follow	-1018
▁ru	-1019
▁turned	-1020
▁farm	-1021
▁ar	-1022
▁lion	-1023
where	-1024
▁Tw	-1025
▁agre	-1026
ect	-1027
▁race	-1028
▁cool	-1029
aybe	-1030
▁daddy	-1031
▁different	-1032
▁quick	-1033
▁trees	-1034
▁hun	-1035
▁cookies	-1036
▁sweet	-1037
oney	-1038
▁grandma	-1039
▁bag	-1040
▁please	-1041
▁talk	-1042
We	-1043
▁thing	-1044
▁pull	-1045
▁scary	-1046
▁hop	-1047
▁stop	-1048
▁Tweet	-1049
orn	-1050
▁behind	-1051
▁hair	-1052
ered	-1053
▁surprise	-1054
▁per	-1055
▁explore	-1056
▁think	-1057
▁cream	-1058
▁helping	-1059
▁climbed	-1060
▁song	-1061
▁top	-1062
▁bar	-1063
▁Now	-1064
▁Later	-1065
▁tall	-1066
▁grass	-1067
▁move	-1068
hn	-1069
▁listened	-1070
▁dri	-1071
▁running	-1072
▁wrong	-1073
▁turn	-1074
▁curi	-1075
▁build	-1076
▁friendly	-1077
▁John	-1078
▁dark	-1079
▁dinner	-1080
ph	-1081
aper	-1082
▁owner	-1083
▁cars	-1084
▁curious	-1085
▁sho	-1086
▁table	-1087
▁agreed	-1088
▁shared	-1089
ike	-1090
▁cla	-1091
▁bright	-1092
▁coming	-1093
▁closer	-1094
▁learn	-1095
▁floor	-1096
ced	-1097
▁quickly	-1098
▁dance	-1099
oice	-1100
ucky	-1101
▁hungry	-1102
▁another	-1103
▁block	-1104
▁dream	-1105
sy	-1106
▁That	-1107
▁swing	-1108
▁here	-1109
▁might	-1110
▁doing	-1111
▁Sarah	-1112
▁accidentally	-1113
nts	-1114
▁teddy	-1115
ign	-1116
ey	-1117
ather	-1118
▁forgot	-1119
ittens	-1120
▁broke	-1121
▁wet	-1122
▁leaves	-1123
▁touch	-1124
▁shar	-1125
▁stuck	-1126
▁smell	-1127
▁tail	-1128
lly	-1129
key	-1130
▁underst	-1131
▁brought	-1132
▁himself	-1133
▁hide	-1134
asure	-1135
Mommy	-1136
▁Just	-1137
ards	-1138
▁herself	-1139
Why	-1140
▁wood	-1141
▁This	-1142
▁left	-1143
▁gone	-1144
▁vis	-1145
▁paper	-1146
bo	-1147
▁promised	-1148
rot	-1149
▁why	-1150
▁light	-1151
▁pretend	-1152
icy	-1153
▁grate	-1154
▁yard	-1155
▁finished	-1156
▁close	-1157
▁delic	-1158
▁grateful	-1159
▁candy	-1160
▁fair	-1161
gg	-1162
▁perf	-1163
▁ready	-1164
▁plan	-1165
▁anything	-1166
bye	-1167
▁voice	-1168
▁glad	-1169
▁trying	-1170
▁colors	-1171
▁Finally	-1172
av	-1173
▁really	-1174
▁has	-1175
▁tight	-1176
▁owl	-1177
▁ride	-1178
▁through	-1179
▁hill	-1180
▁Mittens	-1181
▁Tommy	-1182
ield	-1183
▁balloon	-1184
▁train	-1185
oup	-1186
▁puppy	-1187
Oh	-1188
art	-1189
oom	-1190
▁wished	-1191
row	-1192
cess	-1193
▁window	-1194
ached	-1195
▁sunny	-1196
▁shout	-1197
▁Dad	-1198
pe	-1199
▁fall	-1200
▁hold	-1201
isy	-1202
▁fruit	-1203
▁ve	-1204
▁full	-1205
▁snow	-1206
▁While	-1207
bbed	-1208
▁pictures	-1209
▁began	-1210
▁pink	-1211
set	-1212
ation	-1213
▁yellow	-1214
▁world	-1215
▁everywhere	-1216
▁been	-1217
ctor	-1218
▁seen	-1219
irty	-1220
▁less	-1221
▁dirty	-1222
▁someone	-1223
▁pare	-1224
▁grow	-1225
▁wonder	-1226
▁visit	-1227
ssed	-1228
stle	-1229
▁ju	-1230
co	-1231
▁moment	-1232
▁flying	-1233
▁eating	-1234
af	-1235
▁roll	-1236
▁nest	-1237
▁goodbye	-1238
▁count	-1239
▁land	-1240
ac	-1241
▁does	-1242
avy	-1243
ask	-1244
▁only	-1245
▁set	-1246
▁blocks	-1247
▁sit	-1248
▁bran	-1249
Okay	-1250
▁ste	-1251
▁sear	-1252
▁break	-1253
▁baby	-1254
▁mar	-1255
▁pat	-1256
▁name	-1257
▁mus	-1258
▁done	-1259
▁happen	-1260
▁win	-1261
▁apple	-1262
▁air	-1263
▁monkey	-1264
amp	-1265
▁Em	-1266
red	-1267
ons	-1268
▁books	-1269
thy	-1270
▁slow	-1271
▁colorful	-1272
▁waited	-1273
▁comp	-1274
▁yes	-1275
▁pre	-1276
▁reached	-1277
orm	-1278
▁crying	-1279
der	-1280
▁laugh	-1281
▁bit	-1282
ained	-1283
▁arm	-1284
▁beach	-1285
▁gent	-1286
os	-1287
▁clot	-1288
▁won	-1289
▁clothes	-1290
ries	-1291
zz	-1292
▁reach	-1293
▁To	-1294
▁carrot	-1295
▁plant	-1296
▁cup	-1297
▁held	-1298
▁pus	-1299
illed	-1300
▁wasn	-1301
▁pen	-1302
ister	-1303
ix	-1304
de	-1305
▁fight	-1306
ste	-1307
ash	-1308
▁upset	-1309
▁Everyone	-1310
▁fre	-1311
▁wise	-1312
▁pro	-1313
▁thank	-1314
▁sister	-1315
gon	-1316
stead	-1317
▁finally	-1318
▁heavy	-1319
ames	-1320
▁pol	-1321
▁parents	-1322
room	-1323
up	-1324
▁enjoyed	-1325
▁treasure	-1326
▁mat	-1327
▁towards	-1328
▁paint	-1329
▁everything	-1330
▁music	-1331
Sure	-1332
▁bike	-1333
▁treat	-1334
ance	-1335
▁castle	-1336
ower	-1337
▁alone	-1338
▁lesson	-1339
▁job	-1340
▁Bobo	-1341
▁delicious	-1342
▁spl	-1343
▁sail	-1344
▁nap	-1345
▁monster	-1346
ott	-1347
▁There	-1348
▁danger	-1349
▁bigger	-1350
▁child	-1351
▁getting	-1352
▁join	-1353
▁cloud	-1354
gle	-1355
▁woods	-1356
▁followed	-1357
cle	-1358
sc	-1359
▁understand	-1360
▁woke	-1361
ich	-1362
ully	-1363
▁hopped	-1364
▁mix	-1365
▁swings	-1366
▁money	-1367
▁doctor	-1368
▁arri	-1369
ere	-1370
▁ele	-1371
▁spot	-1372
ream	-1373
less	-1374
▁swam	-1375
llie	-1376
▁pot	-1377
fully	-1378
▁looks	-1379
▁bath	-1380
▁wall	-1381
▁je	-1382
ast	-1383
▁games	-1384
Lily	-1385
▁em	-1386
▁Bl	-1387
▁without	-1388
▁dry	-1389
▁All	-1390
▁blew	-1391
ze	-1392
▁Jane	-1393
outh	-1394
aught	-1395
▁mouth	-1396
▁fur	-1397
ub	-1398
▁grabbed	-1399
▁bor	-1400
▁river	-1401
▁bott	-1402
▁must	-1403
▁field	-1404
ves	-1405
▁snack	-1406
man	-1407
▁bite	-1408
▁shouted	-1409
▁caught	-1410
▁gif	-1411
▁pulled	-1412
ins	-1413
oc	-1414
▁arrived	-1415
▁heal	-1416
▁tower	-1417
▁deep	-1418
▁pushed	-1419
▁hit	-1420
▁explained	-1421
▁rel	-1422
▁word	-1423
▁pet	-1424
aisy	-1425
▁chair	-1426
▁tiny	-1427
cy	-1428
th	-1429
▁leg	-1430
▁gu	-1431
This	-1432
▁pieces	-1433
unch	-1434
▁What	-1435
sp	-1436
▁Blue	-1437
▁stayed	-1438
let	-1439
iss	-1440
▁threw	-1441
▁dangerous	-1442
▁waved	-1443
▁bee	-1444
chool	-1445
Do	-1446
▁side	-1447
▁wouldn	-1448
fort	-1449
▁sea	-1450
▁carefully	-1451
cket	-1452
▁able	-1453
▁Soon	-1454
▁free	-1455
▁white	-1456
eared	-1457
▁school	-1458
▁black	-1459
▁silly	-1460
▁perfect	-1461
▁worried	-1462
iet	-1463
▁el	-1464
gged	-1465
▁Inside	-1466
▁blank	-1467
▁key	-1468
▁branch	-1469
▁cour	-1470
▁clapped	-1471
▁quiet	-1472
▁enough	-1473
itting	-1474
▁else	-1475
▁bowl	-1476
▁blanket	-1477
▁fox	-1478
ocked	-1479
▁Sammy	-1480
ated	-1481
▁adventures	-1482
▁course	-1483
ence	-1484
come	-1485
▁king	-1486
▁amazed	-1487
▁talked	-1488
pping	-1489
oun	-1490
ila	-1491
▁dropped	-1492
▁farmer	-1493
▁today	-1494
▁drink	-1495
▁ear	-1496
▁que	-1497
bor	-1498
▁sec	-1499
▁mother	-1500
▁sharing	-1501
▁tom	-1502
▁gi	-1503
▁soup	-1504
▁ant	-1505
▁princess	-1506
▁fairy	-1507
▁spr	-1508
phant	-1509
▁bring	-1510
▁sandw	-1511
▁sick	-1512
ier	-1513
▁well	-1514
ord	-1515
▁sees	-1516
▁bat	-1517
ek	-1518
▁att	-1519
▁Lila	-1520
▁instead	-1521
▁danced	-1522
▁amazing	-1523
▁jar	-1524
og	-1525
▁poin	-1526
▁Teddy	-1527
yard	-1528
▁elephant	-1529
▁backyard	-1530
▁rocks	-1531
ract	-1532
▁pudd	-1533
▁wish	-1534
▁closed	-1535
▁late	-1536
spec	-1537
▁dolls	-1538
▁three	-1539
ming	-1540
▁though	-1541
▁Daisy	-1542
cked	-1543
▁mail	-1544
▁smart	-1545
▁morning	-1546
▁pack	-1547
ible	-1548
ee	-1549
▁pig	-1550
▁cray	-1551
▁storm	-1552
ses	-1553
▁neigh	-1554
▁dragon	-1555
ren	-1556
▁such	-1557
▁sitting	-1558
▁wel	-1559
▁sang	-1560
▁ph	-1561
▁cow	-1562
▁searched	-1563
▁strange	-1564
iver	-1565
▁leaf	-1566
asket	-1567
▁letter	-1568
▁basket	-1569
▁bus	-1570
olly	-1571
▁lunch	-1572
▁makes	-1573
ball	-1574
ling	-1575
▁miss	-1576
ang	-1577
Of	-1578
ased	-1579
▁few	-1580
▁creat	-1581
But	-1582
▁crab	-1583
ross	-1584
▁sign	-1585
▁cute	-1586
ined	-1587
▁barked	-1588
▁juice	-1589
bble	-1590
".	-1591
used	-1592
▁turns	-1593
ever	-1594
▁neck	-1595
▁Gra	-1596
▁orange	-1597
▁belie	-1598
▁mud	-1599
▁purp	-1600
▁wings	-1601
▁wore	-1602
ese	-1603
▁stre	-1604
▁Emma	-1605
▁carry	-1606
pper	-1607
ire	-1608
▁cheese	-1609
▁war	-1610
▁secret	-1611
▁neighbor	-1612
▁hig	-1613
▁brown	-1614
uddy	-1615
▁past	-1616
▁fan	-1617
▁gift	-1618
▁purple	-1619
▁patient	-1620
▁ben	-1621
igg	-1622
▁fixed	-1623
itten	-1624
▁belong	-1625
▁apples	-1626
▁children	-1627
me	-1628
▁hiding	-1629
▁year	-1630
▁smo	-1631
Tim	-1632
▁taking	-1633
▁egg	-1634
▁shoes	-1635
▁Ducky	-1636
▁spid	-1637
app	-1638
▁faster	-1639
▁bought	-1640
▁whe	-1641
▁boun	-1642
▁road	-1643
▁dist	-1644
▁stu	-1645
▁round	-1646
▁fit	-1647
▁butt	-1648
▁Tweety	-1649
▁welcome	-1650
▁seem	-1651
▁bottle	-1652
vel	-1653
blem	-1654
▁colle	-1655
▁problem	-1656
br	-1657
▁Buddy	-1658
▁suddenly	-1659
isk	-1660
▁singing	-1661
▁Maybe	-1662
▁hor	-1663
▁mil	-1664
▁throw	-1665
ises	-1666
ipped	-1667
▁filled	-1668
▁sug	-1669
▁jun	-1670
▁snake	-1671
▁Ch	-1672
ail	-1673
board	-1674
▁bench	-1675
▁helpful	-1676
▁higher	-1677
▁shap	-1678
▁milk	-1679
▁likes	-1680
▁wagged	-1681
irth	-1682
ian	-1683
▁disapp	-1684
irthday	-1685
▁craw	-1686
onely	-1687
▁lonely	-1688
▁days	-1689
▁trip	-1690
fused	-1691
fish	-1692
▁trou	-1693
▁heart	-1694
ining	-1695
▁pocket	-1696
▁cozy	-1697
▁nose	-1698
unt	-1699
▁buck	-1700
▁band	-1701
emo	-1702
▁forever	-1703
sw	-1704
▁talking	-1705
erry	-1706
▁paw	-1707
▁min	-1708
▁Nemo	-1709
▁answ	-1710
▁words	-1711
▁pers	-1712
▁har	-1713
▁start	-1714
▁Together	-1715
▁ob	-1716
ugg	-1717
▁inc	-1718
▁whist	-1719
▁driver	-1720
iskers	-1721
▁teac	-1722
aur	-1723
▁Br	-1724
▁same	-1725
▁birthday	-1726
▁spider	-1727
itch	-1728
▁lake	-1729
ose	-1730
▁stand	-1731
▁missed	-1732
▁prot	-1733
▁street	-1734
▁Whiskers	-1735
ass	-1736
▁mist	-1737
▁tasty	-1738
▁mark	-1739
Maybe	-1740
▁healthy	-1741
▁knocked	-1742
▁kick	-1743
▁eas	-1744
ountain	-1745
▁coat	-1746
▁drove	-1747
▁rolled	-1748
▁des	-1749
▁puddle	-1750
▁seed	-1751
▁teacher	-1752
to	-1753
▁act	-1754
▁pop	-1755
▁ban	-1756
▁pill	-1757
cing	-1758
▁wants	-1759
▁believe	-1760
▁shell	-1761
▁birdie	-1762
fortable	-1763
▁grew	-1764
idge	-1765
▁bow	-1766
▁honey	-1767
▁bush	-1768
eb	-1769
▁val	-1770
▁cover	-1771
▁Brown	-1772
▁spo	-1773
▁appeared	-1774
▁collect	-1775
▁teach	-1776
▁banan	-1777
▁spin	-1778
▁gentle	-1779
▁cookie	-1780
▁Ellie	-1781
▁landed	-1782
ato	-1783
▁shining	-1784
ale	-1785
The	-1786
bow	-1787
▁organ	-1788
▁drew	-1789
▁later	-1790
ize	-1791
▁shop	-1792
▁power	-1793
▁magical	-1794
▁part	-1795
▁living	-1796
▁most	-1797
▁kite	-1798
ches	-1799
▁sharp	-1800
alm	-1801
▁fence	-1802
umb	-1803
▁shy	-1804
▁sandwich	-1805
▁laughing	-1806
ital	-1807
▁watching	-1808
▁knee	-1809
▁wra	-1810
▁shr	-1811
▁seek	-1812
▁longer	-1813
▁af	-1814
cer	-1815
▁rainbow	-1816
▁Joe	-1817
▁hosp	-1818
▁hospital	-1819
▁nut	-1820
▁feather	-1821
▁phone	-1822
▁ap	-1823
ator	-1824
▁suc	-1825
▁pract	-1826
▁songs	-1827
▁worm	-1828
umpy	-1829
▁moved	-1830
sting	-1831
▁mine	-1832
▁live	-1833
▁Thank	-1834
▁shirt	-1835
▁pile	-1836
▁mad	-1837
ually	-1838
▁meet	-1839
▁horse	-1840
▁busy	-1841
▁sack	-1842
▁life	-1843
▁coo	-1844
▁spoon	-1845
▁jungle	-1846
▁cave	-1847
▁bread	-1848
epend	-1849
▁chick	-1850
▁onto	-1851
▁inv	-1852
▁building	-1853
aughty	-1854
nic	-1855
orrow	-1856
▁med	-1857
▁naughty	-1858
▁cou	-1859
▁picnic	-1860
▁cart	-1861
▁crayons	-1862
▁oven	-1863
cks	-1864
▁joy	-1865
▁puzz	-1866
▁mum	-1867
raid	-1868
▁mach	-1869
▁afraid	-1870
▁spark	-1871
▁along	-1872
▁rob	-1873
ocol	-1874
▁carrots	-1875
▁wonderful	-1876
▁button	-1877
▁gently	-1878
▁tomorrow	-1879
▁chocol	-1880
▁bur	-1881
▁wolf	-1882
▁chased	-1883
ular	-1884
▁robot	-1885
▁exp	-1886
▁pan	-1887
▁meant	-1888
▁taste	-1889
▁fold	-1890
▁kitten	-1891
▁spicy	-1892
adow	-1893
▁messy	-1894
▁scream	-1895
▁lem	-1896
▁smiles	-1897
ially	-1898
▁swimming	-1899
irp	-1900
▁wash	-1901
una	-1902
specially	-1903
▁dirt	-1904
ourn	-1905
mb	-1906
▁cir	-1907
▁plane	-1908
▁especially	-1909
▁asleep	-1910
▁pour	-1911
▁thin	-1912
eter	-1913
▁journ	-1914
▁vill	-1915
▁holding	-1916
▁drawing	-1917
▁peace	-1918
▁bucket	-1919
com	-1920
cean	-1921
▁ocean	-1922
▁foot	-1923
▁rope	-1924
▁chocolate	-1925
Please	-1926
▁cheered	-1927
▁sounds	-1928
▁tasted	-1929
▁bugs	-1930
▁shake	-1931
ert	-1932
▁save	-1933
▁zoo	-1934
▁ser	-1935
▁protect	-1936
▁drive	-1937
▁touc	-1938
▁shook	-1939
▁push	-1940
▁stone	-1941
▁promise	-1942
ress	-1943
oose	-1944
▁seat	-1945
shine	-1946
Good	-1947
▁bone	-1948
▁slowly	-1949
▁glow	-1950
▁confused	-1951
▁mistake	-1952
▁wild	-1953
ity	-1954
▁intere	-1955
▁lucky	-1956
▁knowing	-1957
▁nearby	-1958
getable	-1959
▁young	-1960
▁sunshine	-1961
▁coin	-1962
▁vegetable	-1963
▁anyone	-1964
lla	-1965
▁whistle	-1966
llo	-1967
▁su	-1968
▁sol	-1969
My	-1970
▁smelled	-1971
ho	-1972
▁vase	-1973
ten	-1974
▁ce	-1975
▁touched	-1976
▁pres	-1977
▁cleaned	-1978
▁turt	-1979
▁mind	-1980
▁Jim	-1981
gest	-1982
izz	-1983
▁Tweetie	-1984
ove	-1985
ions	-1986
den	-1987
▁sal	-1988
▁joke	-1989
ella	-1990
▁treats	-1991
▁whole	-1992
gly	-1993
umber	-1994
▁bake	-1995
▁Grandma	-1996
elly	-1997
▁fle	-1998
els	-1999
▁stars	-2000
▁imag	-2001
▁pass	-2002
▁tea	-2003
ment	-2004
▁wave	-2005
imi	-2006
▁ugly	-2007
▁hidden	-2008
▁ret	-2009
oop	-2010
▁machine	-2011
▁village	-2012
▁di	-2013
▁myster	-2014
▁Jerry	-2015
▁gray	-2016
▁calm	-2017
▁hoped	-2018
▁turtle	-2019
▁fancy	-2020
▁tid	-2021
▁ship	-2022
▁splas	-2023
▁Mimi	-2024
▁wing	-2025
▁bubble	-2026
▁shelf	-2027
▁Jen	-2028
▁bell	-2029
▁wide	-2030
▁Le	-2031
pa	-2032
▁whenever	-2033
ife	-2034
▁clever	-2035
▁interesting	-2036
onest	-2037
box	-2038
bar	-2039
▁ent	-2040
▁write	-2041
▁present	-2042
▁retur	-2043
▁couch	-2044
▁spe	-2045
ont	-2046
▁Bella	-2047
▁sour	-2048
▁rude	-2049
▁tidy	-2050
▁giant	-2051
▁waiting	-2052
▁shapes	-2053
▁supp	-2054
lace	-2055
▁grumpy	-2056
▁net	-2057
▁necklace	-2058
▁fing	-2059
▁jelly	-2060
ama	-2061
▁sur	-2062
kin	-2063
▁honest	-2064
▁wondered	-2065
▁saved	-2066
erly	-2067
dge	-2068
▁bark	-2069
▁finish	-2070
▁ign	-2071
▁card	-2072
mer	-2073
▁asks	-2074
barra	-2075
▁Daddy	-2076
▁stories	-2077
▁embarra	-2078
▁pillow	-2079
▁front	-2080
▁spoil	-2081
▁smooth	-2082
▁zoom	-2083
▁sel	-2084
la	-2085
▁tightly	-2086
scap	-2087
Hey	-2088
▁boss	-2089
▁wearing	-2090
▁forget	-2091
▁hello	-2092
▁prince	-2093
ult	-2094
▁clown	-2095
▁pizz	-2096
▁fruits	-2097
▁puzzle	-2098
▁path	-2099
▁snowman	-2100
▁Bu	-2101
▁cloth	-2102
▁av	-2103
▁rad	-2104
▁group	-2105
vous	-2106
ope	-2107
▁working	-2108
lower	-2109
▁pizza	-2110
▁ducks	-2111
▁spray	-2112
▁Molly	-2113
▁string	-2114
▁lemon	-2115
▁years	-2116
▁vegetables	-2117
ness	-2118
pty	-2119
▁empty	-2120
▁lad	-2121
ndpa	-2122
▁huge	-2123
▁trouble	-2124
▁Their	-2125
▁selfish	-2126
▁quest	-2127
oppy	-2128
▁noises	-2129
▁chew	-2130
▁fil	-2131
▁plate	-2132
▁runs	-2133
urse	-2134
▁gather	-2135
▁fighting	-2136
aughter	-2137
▁fake	-2138
▁ladder	-2139
▁ash	-2140
▁jew	-2141
▁stra	-2142
▁pretended	-2143
eth	-2144
ward	-2145
ork	-2146
▁thinks	-2147
▁Johnny	-2148
▁pointed	-2149
▁sleepy	-2150
▁class	-2151
▁arms	-2152
▁Re	-2153
▁trust	-2154
ars	-2155
▁grab	-2156
▁change	-2157
izzy	-2158
▁moon	-2159
▁scar	-2160
▁Leo	-2161
▁mot	-2162
▁explor	-2163
▁person	-2164
▁cheer	-2165
ensive	-2166
ors	-2167
▁slid	-2168
▁across	-2169
▁lay	-2170
▁chest	-2171
▁van	-2172
▁clouds	-2173
▁ring	-2174
▁decor	-2175
▁line	-2176
▁ner	-2177
▁sheep	-2178
▁expensive	-2179
uce	-2180
▁nervous	-2181
ipe	-2182
▁lazy	-2183
▁pool	-2184
▁jumping	-2185
▁scre	-2186
est	-2187
▁legs	-2188
▁Fred	-2189
▁stepped	-2190
work	-2191
▁dogs	-2192
▁twins	-2193
▁step	-2194
▁tie	-2195
▁drank	-2196
▁search	-2197
▁Emily	-2198
▁lift	-2199
era	-2200
imed	-2201
▁hang	-2202
▁smelly	-2203
▁easy	-2204
▁carried	-2205
▁feels	-2206
▁reg	-2207
▁embarrassed	-2208
▁chase	-2209
▁beak	-2210
▁lovely	-2211
▁deer	-2212
▁Jill	-2213
▁sold	-2214
▁remind	-2215
osaur	-2216
▁snacks	-2217
▁daughter	-2218
▁queen	-2219
▁police	-2220
▁pin	-2221
▁which	-2222
▁cleaning	-2223
▁weak	-2224
iting	-2225
▁bal	-2226
Tom	-2227
▁tool	-2228
▁pri	-2229
▁Sn	-2230
▁cro	-2231
▁balls	-2232
▁Remy	-2233
▁dinosaur	-2234
▁yog	-2235
▁hum	-2236
▁sweetie	-2237
ggy	-2238
▁Brownie	-2239
▁drum	-2240
▁places	-2241
▁sticks	-2242
▁gun	-2243
▁Be	-2244
▁bossy	-2245
isa	-2246
Be	-2247
▁closet	-2248
▁understood	-2249
▁rocket	-2250
▁last	-2251
ush	-2252
▁law	-2253
▁gold	-2254
▁teeth	-2255
▁mov	-2256
▁stir	-2257
amed	-2258
▁Bunny	-2259
oman	-2260
▁Mark	-2261
▁woman	-2262
▁creative	-2263
▁My	-2264
▁Lisa	-2265
▁passed	-2266
▁plants	-2267
▁stood	-2268
▁relie	-2269
▁polite	-2270
▁powerful	-2271
▁furry	-2272
▁hero	-2273
▁hope	-2274
▁sugar	-2275
laimed	-2276
erp	-2277
▁exclaimed	-2278
▁lead	-2279
▁blow	-2280
▁mountain	-2281
▁pay	-2282
▁splash	-2283
▁sell	-2284
scape	-2285
▁Ollie	-2286
▁Bun	-2287
▁rich	-2288
▁answer	-2289
▁seemed	-2290
erries	-2291
▁eag	-2292
▁berries	-2293
erpill	-2294
▁caterpill	-2295
▁check	-2296
▁peaceful	-2297
ond	-2298
▁Red	-2299
oof	-2300
▁success	-2301
▁medic	-2302
lves	-2303
▁map	-2304
▁gen	-2305
owed	-2306
▁medicine	-2307
▁weird	-2308
▁shark	-2309
▁Bet	-2310
▁dancing	-2311
▁fear	-2312
▁sort	-2313
▁cri	-2314
ti	-2315
▁spilled	-2316
▁wand	-2317
itter	-2318
▁matter	-2319
▁test	-2320
▁motor	-2321
▁dish	-2322
▁stret	-2323
▁caterpillar	-2324
▁disco	-2325
het	-2326
arge	-2327
▁nothing	-2328
▁space	-2329
ual	-2330
▁famous	-2331
▁happening	-2332
▁chicken	-2333
▁ones	-2334
aghet	-2335
aghetti	-2336
▁relieved	-2337
▁lock	-2338
rag	-2339
ipp	-2340
▁scare	-2341
▁boring	-2342
▁tummy	-2343
▁spaghetti	-2344
▁mysterious	-2345
▁gigg	-2346
▁lose	-2347
▁clear	-2348
aving	-2349
▁adm	-2350
▁maybe	-2351
lebr	-2352
ometimes	-2353
oomy	-2354
▁print	-2355
▁rec	-2356
arl	-2357
▁celebr	-2358
▁taught	-2359
▁With	-2360
▁spent	-2361
▁whale	-2362
▁mixed	-2363
▁dizzy	-2364
▁crown	-2365
▁match	-2366
▁journey	-2367
▁ord	-2368
▁tig	-2369
▁rare	-2370
▁asking	-2371
ume	-2372
▁glass	-2373
▁mic	-2374
▁pump	-2375
▁Mama	-2376
▁towel	-2377
▁forgive	-2378
ustr	-2379
▁missing	-2380
▁cage	-2381
▁organized	-2382
▁soap	-2383
▁rough	-2384
▁hugs	-2385
pack	-2386
▁team	-2387
airs	-2388
▁finding	-2389
not	-2390
▁moving	-2391
▁poor	-2392
▁How	-2393
▁feet	-2394
bles	-2395
▁hur	-2396
▁large	-2397
▁Mary	-2398
▁noisy	-2399
▁gate	-2400
▁balloons	-2401
ser	-2402
▁slipped	-2403
▁frustr	-2404
▁norm	-2405
▁tick	-2406
port	-2407
▁cannot	-2408
▁stuff	-2409
oot	-2410
▁pray	-2411
▁faces	-2412
aking	-2413
▁true	-2414
▁spend	-2415
▁snee	-2416
ute	-2417
ote	-2418
▁normal	-2419
▁glue	-2420
▁jack	-2421
▁comes	-2422
▁straw	-2423
▁often	-2424
▁borrow	-2425
isp	-2426
▁splashed	-2427
▁jewel	-2428
ory	-2429
ado	-2430
▁bald	-2431
▁hunt	-2432
▁rid	-2433
iff	-2434
▁comfortable	-2435
phone	-2436
▁banana	-2437
▁micro	-2438
▁covered	-2439
▁become	-2440
ragile	-2441
▁gener	-2442
anut	-2443
▁shoot	-2444
ventually	-2445
ique	-2446
ilt	-2447
▁ignor	-2448
▁guit	-2449
zed	-2450
▁ants	-2451
▁frustrated	-2452
▁toug	-2453
alous	-2454
▁march	-2455
▁mir	-2456
▁unique	-2457
▁jealous	-2458
▁flag	-2459
▁fragile	-2460
olog	-2461
unk	-2462
▁jacket	-2463
ror	-2464
▁number	-2465
aw	-2466
▁breath	-2467
▁note	-2468
▁feed	-2469
ones	-2470
und	-2471
▁mel	-2472
▁tough	-2473
▁apolog	-2474
▁lamp	-2475
▁Why	-2476
▁ashamed	-2477
▁tent	-2478
▁guitar	-2479
▁whisp	-2480
▁icy	-2481
▁scarf	-2482
▁cone	-2483
bby	-2484
▁dest	-2485
imp	-2486
▁body	-2487
▁feathers	-2488
▁boot	-2489
▁batter	-2490
▁eld	-2491
▁Come	-2492
Are	-2493
▁spoiled	-2494
alk	-2495
▁Mrs	-2496
▁incred	-2497
▁perform	-2498
▁exam	-2499
read	-2500
▁mirror	-2501
St	-2502
▁discover	-2503
▁creature	-2504
▁sword	-2505
▁Fr	-2506
▁strawber	-2507
▁generous	-2508
▁resc	-2509
▁branches	-2510
▁swan	-2511
▁ter	-2512
▁movie	-2513
▁incredible	-2514
▁acorn	-2515
fast	-2516
issors	-2517
andy	-2518
▁brush	-2519
▁breakfast	-2520
yal	-2521
▁Bobby	-2522
▁yelled	-2523
▁takes	-2524
▁fine	-2525
▁dig	-2526
▁eggs	-2527
▁Chirp	-2528
Come	-2529
▁spread	-2530
▁peanut	-2531
▁yourself	-2532
▁bounce	-2533
▁thick	-2534
fic	-2535
▁built	-2536
▁unus	-2537
▁exploring	-2538
▁elderly	-2539
▁leaving	-2540
▁balance	-2541
▁unusual	-2542
▁tomato	-2543
▁fill	-2544
▁diffic	-2545
▁washed	-2546
▁tun	-2547
▁fis	-2548
▁Cat	-2549
▁finger	-2550
cient	-2551
▁cost	-2552
▁difficult	-2553
light	-2554
▁scissors	-2555
▁bathroom	-2556
bin	-2557
▁roar	-2558
▁bloom	-2559
selves	-2560
▁terri	-2561
▁fridge	-2562
▁loyal	-2563
▁hopping	-2564
cil	-2565
▁cross	-2566
▁suggest	-2567
arn	-2568
▁solve	-2569
▁add	-2570
▁dough	-2571
▁waves	-2572
▁nod	-2573
▁driving	-2574
▁tiger	-2575
▁cabin	-2576
Timmy	-2577
▁tape	-2578
▁painting	-2579
▁pencil	-2580
▁kiss	-2581
▁shore	-2582
▁unl	-2583
▁loudly	-2584
▁kicked	-2585
▁offered	-2586
▁shadow	-2587
▁ancient	-2588
▁these	-2589
robe	-2590
lph	-2591
▁dolph	-2592
▁tele	-2593
▁ind	-2594
▁harm	-2595
▁taken	-2596
▁Luna	-2597
▁useful	-2598
▁wrote	-2599
▁seeds	-2600
▁log	-2601
▁clock	-2602
▁St	-2603
ground	-2604
dle	-2605
▁delicate	-2606
mbre	-2607
▁fat	-2608
▁umbre	-2609
▁mighty	-2610
▁sque	-2611
▁yarn	-2612
▁giggled	-2613
▁Even	-2614
Max	-2615
▁bean	-2616
▁painted	-2617
▁meal	-2618
cc	-2619
▁rode	-2620
▁Chirpy	-2621
▁fluffy	-2622
bborn	-2623
▁stubborn	-2624
▁witch	-2625
▁cor	-2626
▁ham	-2627
▁pumpkin	-2628
kn	-2629
corn	-2630
▁wagon	-2631
▁dead	-2632
▁barn	-2633
▁terrible	-2634
▁clum	-2635
▁mailbox	-2636
▁track	-2637
asing	-2638
ipop	-2639
llipop	-2640
▁nosy	-2641
▁bushes	-2642
▁escape	-2643
▁lollipop	-2644
▁bridge	-2645
uring	-2646
▁compet	-2647
▁clumsy	-2648
▁fright	-2649
▁tag	-2650
▁stat	-2651
▁Sometimes	-2652
▁popcorn	-2653
known	-2654
ipper	-2655
▁bitter	-2656
▁fier	-2657
▁pir	-2658
▁packed	-2659
▁market	-2660
▁Don	-2661
▁using	-2662
▁libr	-2663
▁umbrella	-2664
▁measure	-2665
▁bubbles	-2666
▁study	-2667
▁fierce	-2668
▁anyway	-2669
▁tripped	-2670
▁unknown	-2671
ighed	-2672
▁crack	-2673
▁fool	-2674
▁office	-2675
▁wake	-2676
▁weal	-2677
▁forgave	-2678
ying	-2679
Now	-2680
▁gar	-2681
▁Andy	-2682
▁dove	-2683
ony	-2684
▁wander	-2685
▁crazy	-2686
▁Polly	-2687
ray	-2688
pes	-2689
▁Your	-2690
▁screamed	-2691
▁kindness	-2692
▁bored	-2693
▁licked	-2694
Where	-2695
▁dull	-2696
▁wis	-2697
▁means	-2698
▁frightened	-2699
▁dug	-2700
edient	-2701
▁depend	-2702
▁stove	-2703
illi	-2704
▁dreaming	-2705
ung	-2706
▁Al	-2707
fted	-2708
▁Momo	-2709
▁res	-2710
▁cher	-2711
▁wrap	-2712
▁If	-2713
ery	-2714
▁Jimmy	-2715
▁brace	-2716
xible	-2717
▁foolish	-2718
urous	-2719
▁scr	-2720
▁obedient	-2721
▁adventurous	-2722
▁week	-2723
▁bracelet	-2724
comfortable	-2725
lies	-2726
▁gas	-2727
▁respec	-2728
▁uncomfortable	-2729
▁circle	-2730
▁practiced	-2731
▁sauce	-2732
▁potato	-2733
▁competit	-2734
▁giving	-2735
▁jam	-2736
▁gloomy	-2737
land	-2738
▁statue	-2739
▁poured	-2740
▁Ros	-2741
▁Bear	-2742
▁record	-2743
▁wealthy	-2744
▁flexible	-2745
▁ref	-2746
▁wheel	-2747
▁Pe	-2748
inal	-2749
▁crawled	-2750
gu	-2751
▁sleeping	-2752
ict	-2753
▁nuts	-2754
▁stage	-2755
▁safely	-2756
▁disappeared	-2757
▁char	-2758
▁corn	-2759
irsty	-2760
▁trucks	-2761
▁respect	-2762
▁ruined	-2763
▁board	-2764
▁impress	-2765
▁flash	-2766
cod	-2767
▁belonged	-2768
arth	-2769
illiant	-2770
▁salad	-2771
▁hoop	-2772
▁orig	-2773
iable	-2774
▁tank	-2775
▁toast	-2776
▁successful	-2777
▁brilliant	-2778
apped	-2779
▁Rosie	-2780
ormous	-2781
Stop	-2782
▁thirsty	-2783
▁goat	-2784
▁cere	-2785
▁sunf	-2786
▁bananas	-2787
▁gum	-2788
▁swe	-2789
▁smiling	-2790
▁enormous	-2791
shion	-2792
▁hose	-2793
▁horn	-2794
▁trick	-2795
▁shoe	-2796
▁hairy	-2797
▁knife	-2798
▁original	-2799
▁cam	-2800
▁grandpa	-2801
elp	-2802
▁Instead	-2803
ours	-2804
▁cooking	-2805
▁steal	-2806
▁independ	-2807
▁twist	-2808
gust	-2809
any	-2810
▁Doggy	-2811
▁juicy	-2812
▁hay	-2813
▁crane	-2814
coa	-2815
▁badly	-2816
bled	-2817
▁shiver	-2818
▁disgust	-2819
▁crocod	-2820
▁cereal	-2821
▁Snow	-2822
▁island	-2823
▁destro	-2824
▁suggested	-2825
inky	-2826
▁clay	-2827
▁cheap	-2828
▁goes	-2829
▁serious	-2830
▁independent	-2831
▁gives	-2832
▁impressive	-2833
▁reliable	-2834
oin	-2835
▁aunt	-2836
met	-2837
ushed	-2838
▁mole	-2839
▁pant	-2840
▁counted	-2841
▁Go	-2842
isted	-2843
▁Buzz	-2844
▁helmet	-2845
▁Freddy	-2846
▁dependable	-2847
▁rose	-2848
▁grace	-2849
als	-2850
▁Please	-2851
atter	-2852
▁ang	-2853
▁loves	-2854
ages	-2855
▁disgusting	-2856
cles	-2857
▁jog	-2858
ilty	-2859
▁moder	-2860
▁guilty	-2861
▁Sm	-2862
upid	-2863
▁trap	-2864
inary	-2865
▁liz	-2866
▁invited	-2867
loo	-2868
▁thoughtful	-2869
▁penny	-2870
▁lifted	-2871
▁cocoa	-2872
▁forth	-2873
▁raven	-2874
▁dolphin	-2875
▁mid	-2876
iches	-2877
▁sandwiches	-2878
▁parade	-2879
▁jolly	-2880
▁relax	-2881
▁lab	-2882
▁playful	-2883
uth	-2884
▁exciting	-2885
▁locked	-2886
▁crocodile	-2887
▁regular	-2888
▁knight	-2889
anger	-2890
▁joined	-2891
▁rat	-2892
▁Bird	-2893
▁saf	-2894
gy	-2895
▁env	-2896
▁corner	-2897
uper	-2898
▁middle	-2899
▁disappoin	-2900
▁Betsy	-2901
cut	-2902
▁mask	-2903
▁pige	-2904
▁wip	-2905
▁hammer	-2906
▁stupid	-2907
▁puts	-2908
▁blueber	-2909
▁prize	-2910
▁camera	-2911
▁popular	-2912
▁eye	-2913
▁lizard	-2914
▁squee	-2915
Me	-2916
▁cheerful	-2917
▁clap	-2918
▁jet	-2919
▁reminded	-2920
▁crayon	-2921
▁garage	-2922
▁modern	-2923
▁sailed	-2924
▁pil	-2925
▁goose	-2926
▁fountain	-2927
▁Mum	-2928
▁early	-2929
▁deliver	-2930
iness	-2931
▁grown	-2932
▁sock	-2933
▁hurts	-2934
▁tunn	-2935
htub	-2936
▁bathtub	-2937
▁charming	-2938
▁stamp	-2939
▁gir	-2940
▁destroy	-2941
▁tor	-2942
If	-2943
▁paws	-2944
Help	-2945
▁smaller	-2946
▁choose	-2947
aurant	-2948
▁gem	-2949
▁beet	-2950
▁hunter	-2951
▁restaurant	-2952
▁low	-2953
▁rep	-2954
▁cartoon	-2955
host	-2956
▁nowhere	-2957
▁returned	-2958
▁comput	-2959
▁stri	-2960
▁needs	-2961
▁compass	-2962
▁mush	-2963
erable	-2964
▁warned	-2965
ates	-2966
cream	-2967
▁barber	-2968
▁fearful	-2969
▁pian	-2970
▁led	-2971
▁doesn	-2972
ost	-2973
▁miserable	-2974
▁magn	-2975
▁careless	-2976
▁yet	-2977
▁bandage	-2978
▁saying	-2979
▁humble	-2980
▁arrow	-2981
▁ghost	-2982
▁er	-2983
▁coll	-2984
▁spring	-2985
▁Some	-2986
▁square	-2987
▁fig	-2988
▁rug	-2989
▁truth	-2990
▁cooked	-2991
▁piano	-2992
▁bull	-2993
▁harmless	-2994
▁pants	-2995
▁trunk	-2996
▁eager	-2997
▁library	-2998
▁tied	-2999
▁sunflower	-3000
▁flashlight	-3001
▁muff	-3002
ating	-3003
ps	-3004
▁pebble	-3005
▁fork	-3006
▁answered	-3007
▁super	-3008
▁filthy	-3009
anged	-3010
time	-3011
▁create	-3012
▁order	-3013
ctop	-3014
▁Tiny	-3015
iv	-3016
▁walks	-3017
▁roof	-3018
ention	-3019
▁disappointed	-3020
ina	-3021
opter	-3022
icopter	-3023
▁mushroom	-3024
vice	-3025
▁twirl	-3026
▁distance	-3027
live	-3028
igator	-3029
▁case	-3030
▁apologized	-3031
▁stranger	-3032
▁zip	-3033
▁wrapped	-3034
oli	-3035
▁helicopter	-3036
▁boxes	-3037
ither	-3038
▁comb	-3039
▁computer	-3040
▁base	-3041
ccoli	-3042
ctopus	-3043
▁tries	-3044
▁bottom	-3045
▁ending	-3046
▁jeep	-3047
▁beetle	-3048
▁Smith	-3049
▁vide	-3050
▁gifted	-3051
▁soar	-3052
▁value	-3053
▁parrot	-3054
▁anx	-3055
▁torn	-3056
ief	-3057
ready	-3058
atch	-3059
▁sink	-3060
▁waff	-3061
▁whispered	-3062
▁eng	-3063
▁ordinary	-3064
▁enc	-3065
▁anxious	-3066
amond	-3067
▁crawl	-3068
▁sil	-3069
▁rubb	-3070
▁dreamed	-3071
▁quar	-3072
▁graceful	-3073
▁already	-3074
▁prep	-3075
▁pasta	-3076
▁candle	-3077
▁compassion	-3078
▁twig	-3079
▁pepper	-3080
▁tooth	-3081
▁troubled	-3082
▁anywhere	-3083
▁haircut	-3084
▁magnet	-3085
▁octopus	-3086
ellig	-3087
▁diamond	-3088
▁alligator	-3089
▁cryst	-3090
▁cube	-3091
▁bicy	-3092
▁frown	-3093
▁intellig	-3094
▁sandc	-3095
ature	-3096
▁rescue	-3097
▁tire	-3098
▁broccoli	-3099
▁flute	-3100
▁kis	-3101
▁smoke	-3102
▁skin	-3103
▁deaf	-3104
▁tricks	-3105
▁persist	-3106
▁wallet	-3107
▁mill	-3108
utes	-3109
io	-3110
▁coins	-3111
▁bees	-3112
▁ways	-3113
▁planet	-3114
▁times	-3115
▁envious	-3116
▁celebrate	-3117
▁lying	-3118
ject	-3119
▁jug	-3120
▁send	-3121
▁picking	-3122
illa	-3123
most	-3124
▁helpless	-3125
Here	-3126
▁decorate	-3127
▁pale	-3128
umpet	-3129
▁changed	-3130
opard	-3131
▁desk	-3132
▁pigeon	-3133
▁restless	-3134
▁trumpet	-3135
▁scoot	-3136
▁almost	-3137
▁thief	-3138
▁cop	-3139
▁soldier	-3140
▁minutes	-3141
▁attract	-3142
▁intelligent	-3143
▁advice	-3144
▁stream	-3145
▁butterflies	-3146
▁persistent	-3147
▁tax	-3148
▁angel	-3149
▁alert	-3150
▁lit	-3151
old	-3152
▁quarrel	-3153
▁envel	-3154
▁harsh	-3155
▁compassionate	-3156
▁stronger	-3157
atient	-3158
▁yours	-3159
▁vi	-3160
▁melon	-3161
▁lean	-3162
▁guess	-3163
aff	-3164
▁scale	-3165
▁notice	-3166
▁thinking	-3167
▁basketball	-3168
▁sle	-3169
▁question	-3170
▁design	-3171
night	-3172
▁scatter	-3173
▁leopard	-3174
▁belt	-3175
ubby	-3176
▁sighed	-3177
▁suit	-3178
▁boats	-3179
▁tunnel	-3180
▁cricket	-3181
▁reading	-3182
▁cap	-3183
▁telling	-3184
▁melt	-3185
▁meat	-3186
▁bedroom	-3187
▁collar	-3188
opl	-3189
▁learning	-3190
eropl	-3191
▁stretch	-3192
▁mug	-3193
Who	-3194
▁attractive	-3195
▁houses	-3196
▁purse	-3197
▁valu	-3198
can	-3199
▁aeropl	-3200
▁may	-3201
▁tem	-3202
▁nail	-3203
▁ador	-3204
▁engine	-3205
▁taxi	-3206
▁excite	-3207
▁rice	-3208
▁impatient	-3209
▁bump	-3210
▁vol	-3211
asses	-3212
urb	-3213
▁speed	-3214
▁chubby	-3215
▁post	-3216
pet	-3217
▁crystal	-3218
▁competitive	-3219
▁figure	-3220
▁adorable	-3221
▁standing	-3222
▁station	-3223
▁cact	-3224
▁those	-3225
▁Tr	-3226
▁avoc	-3227
▁Pet	-3228
uggled	-3229
▁flour	-3230
▁load	-3231
▁earth	-3232
▁bicycle	-3233
▁rubbed	-3234
▁knock	-3235
ebra	-3236
cycle	-3237
▁yogurt	-3238
olin	-3239
▁package	-3240
▁disturb	-3241
▁carpet	-3242
▁enjoying	-3243
▁speak	-3244
aser	-3245
▁barking	-3246
▁shine	-3247
▁sweater	-3248
▁comet	-3249
hero	-3250
How	-3251
▁encou	-3252
▁'	-3253
▁thu	-3254
▁pow	-3255
▁once	-3256
▁superhero	-3257
▁travel	-3258
▁uncle	-3259
▁laund	-3260
▁surf	-3261
angle	-3262
▁laundry	-3263
▁zebra	-3264
▁rece	-3265
▁bags	-3266
▁thread	-3267
▁sheet	-3268
▁lively	-3269
▁themselves	-3270
▁dust	-3271
▁hours	-3272
▁ignorant	-3273
▁univer	-3274
▁pony	-3275
▁envelope	-3276
▁wheels	-3277
▁valuable	-3278
cano	-3279
▁curt	-3280
▁Bub	-3281
▁radio	-3282
▁acce	-3283
▁turkey	-3284
▁violin	-3285
▁curtain	-3286
▁Pete	-3287
▁guard	-3288
ebook	-3289
▁wheat	-3290
▁notebook	-3291
▁shade	-3292
▁enth	-3293
▁cats	-3294
▁enthus	-3295
▁added	-3296
bul	-3297
▁seal	-3298
▁volcano	-3299
▁shrimp	-3300
▁wire	-3301
▁pengu	-3302
affe	-3303
▁cactus	-3304
▁wiped	-3305
▁questions	-3306
▁ext	-3307
aky	-3308
▁screen	-3309
umbled	-3310
▁saus	-3311
▁unlock	-3312
dom	-3313
dest	-3314
cake	-3315
cu	-3316
▁squash	-3317
▁playground	-3318
▁scooter	-3319
▁gets	-3320
▁firework	-3321
▁ears	-3322
▁happiness	-3323
▁stack	-3324
▁helps	-3325
▁gathered	-3326
▁Ella	-3327
▁moms	-3328
▁drawings	-3329
▁phot	-3330
▁behave	-3331
▁chirp	-3332
▁bounced	-3333
▁return	-3334
▁oat	-3335
bulance	-3336
▁pipe	-3337
▁compl	-3338
▁ambulance	-3339
▁camp	-3340
acht	-3341
▁yaw	-3342
az	-3343
▁distant	-3344
▁tears	-3345
▁raft	-3346
▁chalk	-3347
▁slept	-3348
▁extra	-3349
▁nicely	-3350
▁yacht	-3351
▁arg	-3352
▁temp	-3353
▁giraffe	-3354
▁vet	-3355
▁comfort	-3356
▁half	-3357
▁dreams	-3358
▁Bubbles	-3359
▁meadow	-3360
▁spinning	-3361
▁bul	-3362
▁practice	-3363
▁modest	-3364
elery	-3365
▁inse	-3366
▁poem	-3367
ision	-3368
▁perm	-3369
▁lights	-3370
▁helper	-3371
▁vine	-3372
ulif	-3373
▁Rose	-3374
ines	-3375
▁nurse	-3376
ceed	-3377
▁ticket	-3378
▁thankful	-3379
▁jellyfish	-3380
ito	-3381
▁city	-3382
ache	-3383
▁knot	-3384
▁falling	-3385
▁eraser	-3386
▁celery	-3387
stic	-3388
▁Jenny	-3389
▁caulif	-3390
▁tro	-3391
▁calling	-3392
ube	-3393
iew	-3394
iastic	-3395
▁pirate	-3396
▁enthusiastic	-3397
quito	-3398
▁mistakes	-3399
▁swinging	-3400
▁forward	-3401
▁riding	-3402
▁listening	-3403
▁shut	-3404
▁gor	-3405
▁motorcycle	-3406
▁impro	-3407
▁cows	-3408
nam	-3409
▁view	-3410
▁repair	-3411
▁Nut	-3412
▁succeed	-3413
▁cauliflower	-3414
▁mos	-3415
▁Peter	-3416
▁showing	-3417
▁cushion	-3418
otter	-3419
▁trash	-3420
sses	-3421
▁aeroplane	-3422
▁steak	-3423
▁otter	-3424
▁encoura	-3425
▁bulb	-3426
▁climbing	-3427
▁ing	-3428
▁Will	-3429
▁support	-3430
▁barrel	-3431
▁oy	-3432
▁gust	-3433
redient	-3434
▁rub	-3435
▁ingredient	-3436
▁pilot	-3437
▁hook	-3438
▁thunder	-3439
▁shape	-3440
▁mosquito	-3441
▁screw	-3442
▁spell	-3443
stri	-3444
▁pee	-3445
▁boys	-3446
▁message	-3447
ination	-3448
▁eventually	-3449
▁putting	-3450
▁point	-3451
▁Rex	-3452
▁chasing	-3453
▁shield	-3454
▁skip	-3455
▁tells	-3456
▁reward	-3457
▁marry	-3458
aged	-3459
nament	-3460
▁costume	-3461
▁tube	-3462
lete	-3463
▁carrying	-3464
▁chain	-3465
▁tools	-3466
▁bin	-3467
Ben	-3468
▁peach	-3469
lu	-3470
Sorry	-3471
▁spun	-3472
▁split	-3473
▁hotel	-3474
▁pretending	-3475
▁diary	-3476
lier	-3477
▁attic	-3478
▁triangle	-3479
▁club	-3480
▁dishes	-3481
▁baseball	-3482
▁complete	-3483
▁stones	-3484
arian	-3485
▁four	-3486
▁polish	-3487
▁organize	-3488
▁ornament	-3489
▁unpack	-3490
▁rod	-3491
tern	-3492
▁insect	-3493
aid	-3494
gging	-3495
eer	-3496
▁shells	-3497
▁wife	-3498
▁needle	-3499
▁mop	-3500
hin	-3501
azz	-3502
▁hipp	-3503
▁eaten	-3504
appy	-3505
▁gorilla	-3506
▁fallen	-3507
par	-3508
Well	-3509
ailable	-3510
▁earlier	-3511
hip	-3512
▁excitement	-3513
▁tray	-3514
▁folder	-3515
▁sniff	-3516
▁gro	-3517
phy	-3518
▁rag	-3519
▁football	-3520
▁mild	-3521
▁itch	-3522
▁metal	-3523
▁inclu	-3524
seum	-3525
▁object	-3526
▁nature	-3527
essert	-3528
▁separ	-3529
▁trophy	-3530
▁available	-3531
▁hats	-3532
vator	-3533
▁sparkly	-3534
▁museum	-3535
▁dessert	-3536
▁Nutty	-3537
▁rushed	-3538
▁growl	-3539
strich	-3540
▁elevator	-3541
▁rubber	-3542
▁fort	-3543
▁grapes	-3544
▁mem	-3545
▁friendship	-3546
▁harder	-3547
▁patch	-3548
▁deter	-3549
▁hanging	-3550
▁flea	-3551
▁ur	-3552
▁drawer	-3553
▁Many	-3554
▁leash	-3555
▁ingredients	-3556
▁puddles	-3557
▁mint	-3558
▁glove	-3559
▁pit	-3560
urch	-3561
▁shouldn	-3562
▁onion	-3563
▁determ	-3564
▁herb	-3565
▁rhin	-3566
▁stairs	-3567
▁size	-3568
▁golf	-3569
ric	-3570
▁boots	-3571
▁seas	-3572
body	-3573
▁pole	-3574
▁either	-3575
chair	-3576
▁hears	-3577
▁kay	-3578
▁dive	-3579
▁monkeys	-3580
▁itself	-3581
indeer	-3582
▁hippo	-3583
ffe	-3584
▁raced	-3585
ffee	-3586
we	-3587
seek	-3588
▁baking	-3589
▁chess	-3590
▁film	-3591
▁lend	-3592
▁True	-3593
▁cupboard	-3594
▁yoga	-3595
ocer	-3596
▁growing	-3597
▁hedge	-3598
▁ink	-3599
▁pun	-3600
▁church	-3601
▁walls	-3602
▁cries	-3603
▁armchair	-3604
▁glowing	-3605
▁surprises	-3606
▁strawberry	-3607
▁squirrels	-3608
▁reindeer	-3609
▁journal	-3610
▁fu	-3611
▁handle	-3612
▁judge	-3613
▁Today	-3614
▁frame	-3615
kelet	-3616
irit	-3617
ressed	-3618
▁pattern	-3619
play	-3620
oceros	-3621
▁cudd	-3622
▁popped	-3623
▁video	-3624
▁maze	-3625
▁prun	-3626
gl	-3627
▁vest	-3628
▁actually	-3629
▁mule	-3630
▁biggest	-3631
▁airport	-3632
▁lime	-3633
▁grocer	-3634
▁por	-3635
▁soc	-3636
▁coffee	-3637
▁vend	-3638
▁ins	-3639
▁soccer	-3640
▁avocado	-3641
ree	-3642
▁shows	-3643
▁stumbled	-3644
▁Little	-3645
▁kissed	-3646
▁hive	-3647
▁microphone	-3648
▁salt	-3649
iest	-3650
▁display	-3651
▁Jake	-3652
iron	-3653
▁fresh	-3654
▁rhinoceros	-3655
▁task	-3656
ped	-3657
▁counting	-3658
▁skelet	-3659
▁penguin	-3660
▁impressed	-3661
glasses	-3662
▁sunglasses	-3663
▁Spike	-3664
▁No	-3665
cakes	-3666
▁oyster	-3667
omes	-3668
▁coal	-3669
▁magaz	-3670
▁resist	-3671
▁skipped	-3672
▁louder	-3673
▁quit	-3674
▁vendor	-3675
▁hurry	-3676
▁repe	-3677
ugged	-3678
▁Snowy	-3679
▁freez	-3680
astle	-3681
▁factor	-3682
▁decide	-3683
▁sounded	-3684
▁math	-3685
▁factory	-3686
▁ostrich	-3687
gen	-3688
▁fireman	-3689
▁sandcastle	-3690
▁checked	-3691
▁discovered	-3692
▁cord	-3693
▁wool	-3694
▁sight	-3695
▁obser	-3696
▁drop	-3697
▁kayak	-3698
▁skeleton	-3699
web	-3700
▁rot	-3701
gn	-3702
▁radish	-3703
▁medal	-3704
▁mixer	-3705
place	-3706
ley	-3707
▁stuffed	-3708
ations	-3709
▁pand	-3710
zzy	-3711
▁powder	-3712
▁sett	-3713
▁reco	-3714
▁sailor	-3715
▁cob	-3716
ckey	-3717
▁hockey	-3718
▁cable	-3719
▁sy	-3720
head	-3721
iggle	-3722
▁towers	-3723
▁crawling	-3724
▁lightning	-3725
▁matt	-3726
▁makeup	-3727
▁skirt	-3728
▁skull	-3729
▁nods	-3730
▁pear	-3731
chan	-3732
aroo	-3733
angaroo	-3734
▁spear	-3735
▁cardboard	-3736
▁poke	-3737
▁prov	-3738
▁grand	-3739
ron	-3740
▁root	-3741
▁porch	-3742
asher	-3743
▁weather	-3744
▁cooler	-3745
▁lotion	-3746
▁zipper	-3747
▁hung	-3748
▁veil	-3749
▁cobweb	-3750
lter	-3751
▁rever	-3752
icer	-3753
▁battery	-3754
▁accidents	-3755
ured	-3756
umbers	-3757
▁fireplace	-3758
▁blueberries	-3759
washer	-3760
▁excitedly	-3761
▁shelter	-3762
▁tut	-3763
iling	-3764
▁spirit	-3765
▁fixing	-3766
▁mattress	-3767
▁fisher	-3768
keep	-3769
▁bury	-3770
▁sub	-3771
ney	-3772
▁staff	-3773
▁spotted	-3774
ucet	-3775
▁faucet	-3776
▁Fo	-3777
▁buttons	-3778
▁kangaroo	-3779
nger	-3780
Dad	-3781
arry	-3782
▁dishwasher	-3783
ye	-3784
▁refused	-3785
edy	-3786
▁homes	-3787
▁pine	-3788
▁ig	-3789
scope	-3790
▁igloo	-3791
▁Rob	-3792
esday	-3793
▁gear	-3794
chanic	-3795
▁loop	-3796
▁napkin	-3797
▁weep	-3798
istol	-3799
▁Fro	-3800
▁pointing	-3801
▁recogn	-3802
▁managed	-3803
ext	-3804
▁hoping	-3805
▁ax	-3806
▁swung	-3807
▁cabinet	-3808
▁musician	-3809
▁Miss	-3810
▁grill	-3811
Thanks	-3812
▁pistol	-3813
▁rise	-3814
▁muffin	-3815
▁imagine	-3816
▁mechanic	-3817
▁laser	-3818
▁airpl	-3819
▁cherries	-3820
▁tap	-3821
imney	-3822
▁against	-3823
▁chimney	-3824
▁breat	-3825
▁goal	-3826
▁shrink	-3827
▁tear	-3828
▁numbers	-3829
▁Spark	-3830
▁fisherman	-3831
▁wishes	-3832
▁wipe	-3833
▁determined	-3834
▁disag	-3835
▁axe	-3836
▁temple	-3837
▁newsp	-3838
▁bears	-3839
▁telephone	-3840
▁ed	-3841
ym	-3842
▁hall	-3843
▁art	-3844
▁sneeze	-3845
▁parent	-3846
ef	-3847
▁aut	-3848
▁oak	-3849
▁flame	-3850
▁keeping	-3851
▁gym	-3852
Yay	-3853
▁photo	-3854
case	-3855
▁sne	-3856
inking	-3857
orted	-3858
▁cane	-3859
▁sunset	-3860
▁microscope	-3861
Ouch	-3862
stairs	-3863
▁prevent	-3864
▁Grandpa	-3865
▁anch	-3866
▁tornado	-3867
▁blouse	-3868
▁admired	-3869
▁pal	-3870
▁winter	-3871
▁resp	-3872
▁pastry	-3873
▁jokes	-3874
▁oil	-3875
▁fastest	-3876
▁burn	-3877
▁blackboard	-3878
▁rolling	-3879
ense	-3880
▁silver	-3881
▁short	-3882
▁painter	-3883
▁bill	-3884
▁freezer	-3885
▁peeked	-3886
Sam	-3887
▁bookshe	-3888
▁ward	-3889
▁Look	-3890
▁passport	-3891
▁dancer	-3892
keeper	-3893
▁wardrobe	-3894
▁anchor	-3895
▁palace	-3896
ilet	-3897
▁panda	-3898
▁switch	-3899
house	-3900
▁swamp	-3901
▁bookshelf	-3902
▁slides	-3903
▁backpack	-3904
erc	-3905
▁Sunny	-3906
▁marble	-3907
▁missile	-3908
▁miner	-3909
▁iron	-3910
▁toilet	-3911
na	-3912
lau	-3913
▁subway	-3914
▁planned	-3915
▁improve	-3916
▁bathrobe	-3917
▁circles	-3918
omob	-3919
▁rained	-3920
aced	-3921
▁weigh	-3922
ampoo	-3923
▁automob	-3924
▁tutor	-3925
uggling	-3926
▁shocked	-3927
▁reef	-3928
ival	-3929
▁soil	-3930
▁sadly	-3931
▁fingers	-3932
▁choice	-3933
▁cast	-3934
▁dear	-3935
▁bookcase	-3936
▁picks	-3937
shed	-3938
▁magazine	-3939
▁exerc	-3940
▁olive	-3941
▁complain	-3942
te	-3943
▁meowed	-3944
▁fog	-3945
▁ribb	-3946
▁disappear	-3947
anny	-3948
▁spoke	-3949
ience	-3950
render	-3951
vision	-3952
▁Carl	-3953
▁Poppy	-3954
▁shampoo	-3955
▁creek	-3956
lend	-3957
▁ten	-3958
▁ceiling	-3959
▁Sh	-3960
▁suff	-3961
▁perfume	-3962
arm	-3963
▁saving	-3964
▁explain	-3965
angu	-3966
See	-3967
▁newspaper	-3968
Did	-3969
▁theater	-3970
hic	-3971
▁vehic	-3972
▁allowed	-3973
▁television	-3974
▁langu	-3975
▁men	-3976
▁starting	-3977
htray	-3978
▁Pandy	-3979
▁trail	-3980
▁fest	-3981
▁opera	-3982
▁bathe	-3983
▁shaking	-3984
ately	-3985
rod	-3986
▁Pipp	-3987
▁stirred	-3988
iction	-3989
▁neat	-3990
▁tuna	-3991
▁happier	-3992
▁delight	-3993
▁rake	-3994
▁fuel	-3995
▁introd	-3996
apers	-3997
▁file	-3998
ictionary	-3999
▁prepare	-4000
▁taller	-4001
▁hut	-4002
▁snuggled	-4003
▁raz	-4004
▁imagined	-4005
▁meeting	-4006
▁ashtray	-4007
▁birdc	-4008
▁content	-4009
▁Dolly	-4010
uckily	-4011
▁drain	-4012
▁separate	-4013
▁Sus	-4014
▁letters	-4015
▁cups	-4016
▁letting	-4017
▁birdcage	-4018
mend	-4019
▁crib	-4020
▁shower	-4021
mbol	-4022
▁beef	-4023
▁jewelry	-4024
commend	-4025
▁regret	-4026
asis	-4027
▁Sque	-4028
▁serve	-4029
▁recommend	-4030
nce	-4031
▁symbol	-4032
▁cards	-4033
▁meas	-4034
▁hanger	-4035
▁remove	-4036
▁reve	-4037
▁mustache	-4038
▁tease	-4039
▁novel	-4040
iform	-4041
▁delay	-4042
▁lawy	-4043
leased	-4044
▁calend	-4045
▁uniform	-4046
▁easily	-4047
▁edge	-4048
▁chance	-4049
▁dictionary	-4050
▁strawberries	-4051
▁sausage	-4052
▁father	-4053
▁Floppy	-4054
▁washing	-4055
▁nobody	-4056
▁reveal	-4057
▁oasis	-4058
▁raining	-4059
▁lions	-4060
▁automobile	-4061
essie	-4062
▁problems	-4063
mand	-4064
▁calendar	-4065
▁waffle	-4066
▁Joey	-4067
▁lemonade	-4068
▁visited	-4069
▁trains	-4070
▁mitten	-4071
▁trusted	-4072
▁festival	-4073
eterin	-4074
eterinarian	-4075
▁fishing	-4076
▁knows	-4077
▁veterinarian	-4078
▁Are	-4079
▁yield	-4080
▁attach	-4081
▁marched	-4082
▁Eventually	-4083
xy	-4084
▁razor	-4085
▁airplane	-4086
▁roared	-4087
▁reverse	-4088
▁socks	-4089
There	-4090
▁lawyer	-4091
▁Ba	-4092
▁stom	-4093
▁belongs	-4094
ne	-4095
▁Sad	-4096
▁pinch	-4097
▁cell	-4098
▁stickers	-4099
▁panic	-4100
▁chickens	-4101
▁surrender	-4102
▁classroom	-4103
▁sent	-4104
▁accept	-4105
▁windows	-4106
asp	-4107
▁invite	-4108
▁dresses	-4109
▁cliff	-4110
▁billboard	-4111
▁lawn	-4112
nit	-4113
▁Pip	-4114
niture	-4115
▁insisted	-4116
▁discu	-4117
ait	-4118
▁tub	-4119
▁creatures	-4120
▁searching	-4121
▁furniture	-4122
▁float	-4123
▁collection	-4124
uack	-4125
▁player	-4126
▁struggling	-4127
▁junk	-4128
▁trade	-4129
Go	-4130
Sp	-4131
▁sandbox	-4132
▁pair	-4133
▁sneezed	-4134
▁replace	-4135
▁alarm	-4136
▁holes	-4137
▁blowing	-4138
▁pressed	-4139
▁whip	-4140
▁lie	-4141
▁five	-4142
▁Before	-4143
▁buried	-4144
riger	-4145
rigerator	-4146
laud	-4147
▁Hoppy	-4148
▁People	-4149
Give	-4150
▁lumber	-4151
▁refrigerator	-4152
▁papers	-4153
▁stared	-4154
ium	-4155
▁conf	-4156
▁country	-4157
▁waste	-4158
▁supply	-4159
▁human	-4160
▁quiz	-4161
▁mod	-4162
▁knob	-4163
▁patiently	-4164
▁Would	-4165
▁handed	-4166
▁Ru	-4167
▁ped	-4168
Re	-4169
aches	-4170
ulu	-4171
▁Mummy	-4172
▁steps	-4173
Bye	-4174
▁fla	-4175
etch	-4176
▁sprayed	-4177
▁during	-4178
▁apron	-4179
▁firef	-4180
▁snap	-4181
son	-4182
▁perfectly	-4183
▁stable	-4184
▁rail	-4185
rec	-4186
▁rules	-4187
▁difference	-4188
▁above	-4189
▁cur	-4190
▁applaud	-4191
▁argue	-4192
▁language	-4193
▁Alice	-4194
▁chose	-4195
▁Ted	-4196
▁lic	-4197
igi	-4198
wards	-4199
▁Lulu	-4200
▁yucky	-4201
He	-4202
▁destroyed	-4203
▁son	-4204
▁incre	-4205
▁bikes	-4206
aspoon	-4207
▁bet	-4208
quest	-4209
▁feelings	-4210
▁ignore	-4211
Your	-4212
▁admire	-4213
▁page	-4214
▁demand	-4215
▁seeing	-4216
▁stretched	-4217
▁request	-4218
astic	-4219
▁teaspoon	-4220
ison	-4221
▁burned	-4222
▁respons	-4223
▁bumped	-4224
▁Gigi	-4225
▁shoulder	-4226
▁peek	-4227
ays	-4228
▁happens	-4229
reci	-4230
ips	-4231
▁hate	-4232
▁poked	-4233
▁appreci	-4234
▁ga	-4235
▁license	-4236
eor	-4237
▁buckle	-4238
▁marbles	-4239
▁throwing	-4240
▁unite	-4241
▁leaned	-4242
▁news	-4243
▁ended	-4244
hood	-4245
ummer	-4246
▁cared	-4247
▁vehicle	-4248
▁falls	-4249
inked	-4250
▁baked	-4251
▁Co	-4252
cted	-4253
adium	-4254
▁proudly	-4255
▁stadium	-4256
anges	-4257
▁Luckily	-4258
▁fought	-4259
▁inf	-4260
▁Sadly	-4261
▁vac	-4262
Sue	-4263
▁Birdy	-4264
Wait	-4265
▁weap	-4266
▁restore	-4267
▁ahead	-4268
▁ranch	-4269
▁digg	-4270
▁scratch	-4271
▁spade	-4272
vest	-4273
▁digging	-4274
▁berry	-4275
▁mall	-4276
▁Geor	-4277
▁Tina	-4278
▁Squeaky	-4279
Is	-4280
▁model	-4281
ecause	-4282
▁mystery	-4283
▁capt	-4284
▁Harry	-4285
ari	-4286
▁suffer	-4287
ricane	-4288
▁caring	-4289
▁valley	-4290
▁Here	-4291
▁known	-4292
▁jail	-4293
uggage	-4294
▁wine	-4295
▁expec	-4296
▁laughs	-4297
▁mineral	-4298
▁winning	-4299
▁blinked	-4300
mm	-4301
▁summer	-4302
▁skill	-4303
▁luggage	-4304
zag	-4305
▁George	-4306
▁watered	-4307
rise	-4308
▁fetch	-4309
▁counter	-4310
▁mention	-4311
▁worth	-4312
▁guy	-4313
▁fields	-4314
▁protec	-4315
▁Susie	-4316
elcome	-4317
▁flood	-4318
▁shone	-4319
▁attention	-4320
igzag	-4321
▁older	-4322
aring	-4323
▁sunrise	-4324
▁plastic	-4325
▁brothers	-4326
▁provide	-4327
cus	-4328
ucture	-4329
▁twirled	-4330
enny	-4331
▁structure	-4332
▁grape	-4333
emember	-4334
▁raise	-4335
▁harbor	-4336
▁enter	-4337
▁rabbits	-4338
▁quietly	-4339
▁hurricane	-4340
noon	-4341
▁Bessie	-4342
▁afternoon	-4343
▁squeeze	-4344
▁poppy	-4345
▁Give	-4346
▁shrugged	-4347
▁sew	-4348
▁kneel	-4349
▁Where	-4350
?".	-4351
▁Binky	-4352
▁Next	-4353
▁port	-4354
▁myself	-4355
▁evening	-4356
▁pages	-4357
ding	-4358
amber	-4359
▁closely	-4360
They	-4361
▁daisy	-4362
▁cartoons	-4363
sity	-4364
▁thumb	-4365
▁prop	-4366
rmomet	-4367
▁exercise	-4368
▁Y	-4369
aked	-4370
Spot	-4371
uct	-4372
▁zoomed	-4373
▁invest	-4374
▁shivering	-4375
▁Pippin	-4376
▁acorns	-4377
▁planes	-4378
rmometer	-4379
▁investig	-4380
▁kinds	-4381
oby	-4382
ipping	-4383
▁breathe	-4384
▁vacation	-4385
▁captain	-4386
▁oats	-4387
▁warn	-4388
▁chamber	-4389
ived	-4390
ement	-4391
▁horses	-4392
▁investigate	-4393
▁squeezed	-4394
▁leak	-4395
▁Charl	-4396
▁ribbon	-4397
▁peanuts	-4398
▁tour	-4399
▁toe	-4400
▁imagination	-4401
▁steam	-4402
▁matches	-4403
▁believed	-4404
▁hurting	-4405
vet	-4406
quake	-4407
▁Buzzy	-4408
icorn	-4409
▁splashing	-4410
▁sailing	-4411
lest	-4412
▁menu	-4413
▁Betty	-4414
▁unicorn	-4415
▁thermometer	-4416
▁sniffed	-4417
▁claw	-4418
lid	-4419
▁encouraged	-4420
thank	-4421
▁expect	-4422
▁slipper	-4423
▁earthquake	-4424
▁event	-4425
▁equ	-4426
▁rooms	-4427
▁slippery	-4428
ooped	-4429
▁discuss	-4430
▁holid	-4431
▁Cl	-4432
▁officer	-4433
▁fireworks	-4434
▁spending	-4435
▁pad	-4436
▁mass	-4437
▁examine	-4438
▁comf	-4439
▁Lucky	-4440
▁sparkled	-4441
▁universe	-4442
▁placed	-4443
▁upstairs	-4444
▁Johnson	-4445
▁pancakes	-4446
▁Mick	-4447
▁chirped	-4448
▁names	-4449
▁oranges	-4450
▁beauty	-4451
▁beans	-4452
ups	-4453
▁poison	-4454
▁sport	-4455
low	-4456
▁row	-4457
ety	-4458
▁selling	-4459
▁Pinky	-4460
▁sorts	-4461
▁brick	-4462
▁Toby	-4463
▁freeze	-4464
▁Boun	-4465
▁treasures	-4466
▁stud	-4467
▁score	-4468
▁ener	-4469
▁flapped	-4470
▁invit	-4471
▁fut	-4472
▁paid	-4473
▁safari	-4474
▁future	-4475
▁scold	-4476
▁sprink	-4477
▁colour	-4478
▁ok	-4479
▁chairs	-4480
▁weapon	-4481
▁repeat	-4482
▁flavor	-4483
▁frogs	-4484
atched	-4485
▁wag	-4486
▁aw	-4487
▁agree	-4488
ring	-4489
▁shovel	-4490
▁lid	-4491
▁Mickey	-4492
▁beep	-4493
▁infant	-4494
▁x	-4495
▁waving	-4496
▁received	-4497
icing	-4498
▁sticker	-4499
▁safety	-4500
▁talent	-4501
▁Charlie	-4502
mble	-4503
▁offer	-4504
▁tip	-4505
▁ow	-4506
▁stomach	-4507
▁following	-4508
▁tore	-4509
▁pup	-4510
▁holiday	-4511
boo	-4512
▁cherry	-4513
▁Finn	-4514
▁opens	-4515
▁vroom	-4516
▁prayed	-4517
▁tremble	-4518
▁Ow	-4519
▁gain	-4520
▁university	-4521
▁Hel	-4522
▁neighborhood	-4523
▁given	-4524
uggles	-4525
▁plates	-4526
fa	-4527
▁pigs	-4528
▁label	-4529
▁shot	-4530
▁settle	-4531
▁thanks	-4532
▁worse	-4533
▁Mar	-4534
ik	-4535
▁planted	-4536
▁navy	-4537
▁explored	-4538
▁realised	-4539
▁receive	-4540
▁yawned	-4541
▁gasped	-4542
▁candles	-4543
▁pur	-4544
▁stops	-4545
▁doors	-4546
▁However	-4547
▁Sund	-4548
▁buzz	-4549
▁grocery	-4550
▁pushing	-4551
▁rhy	-4552
ipment	-4553
▁bother	-4554
▁Gr	-4555
chie	-4556
▁ordered	-4557
▁vanished	-4558
▁apart	-4559
▁equipment	-4560
▁jazz	-4561
▁drinking	-4562
▁respectful	-4563
▁copper	-4564
ges	-4565
▁cutting	-4566
▁holds	-4567
▁ignored	-4568
▁somewhere	-4569
▁writing	-4570
ssible	-4571
▁rang	-4572
▁alive	-4573
▁claws	-4574
uggle	-4575
▁observe	-4576
▁cakes	-4577
▁urge	-4578
▁scattered	-4579
▁twisted	-4580
thm	-4581
▁warning	-4582
▁Hoot	-4583
▁Everywhere	-4584
▁shooting	-4585
▁catching	-4586
▁lives	-4587
▁brain	-4588
▁bouncing	-4589
▁Bluey	-4590
▁wre	-4591
oph	-4592
▁sticky	-4593
▁tide	-4594
▁mummy	-4595
▁sofa	-4596
▁Snuggles	-4597
Ow	-4598
▁crashed	-4599
▁slip	-4600
ince	-4601
▁dare	-4602
▁spots	-4603
▁rhythm	-4604
men	-4605
▁punish	-4606
▁energy	-4607
▁Mike	-4608
▁oper	-4609
looking	-4610
▁streng	-4611
▁smells	-4612
▁married	-4613
mare	-4614
▁minute	-4615
▁skills	-4616
▁jumps	-4617
▁soak	-4618
▁strength	-4619
▁bricks	-4620
▁forgotten	-4621
sters	-4622
▁allow	-4623
▁brighter	-4624
▁massage	-4625
▁dressed	-4626
▁Mandy	-4627
▁inst	-4628
▁palm	-4629
▁waffles	-4630
ship	-4631
ween	-4632
Mmm	-4633
▁appear	-4634
▁between	-4635
med	-4636
ffic	-4637
▁tonight	-4638
▁During	-4639
▁printer	-4640
ero	-4641
▁frowned	-4642
▁sty	-4643
▁jewels	-4644
▁ali	-4645
▁crossed	-4646
▁steel	-4647
ecture	-4648
▁nightmare	-4649
▁clapping	-4650
ib	-4651
▁lecture	-4652
▁release	-4653
▁circus	-4654
▁bak	-4655
▁traffic	-4656
▁hers	-4657
▁mailman	-4658
▁teaching	-4659
▁wandered	-4660
▁remain	-4661
▁leather	-4662
sit	-4663
▁hist	-4664
▁pirates	-4665
▁parts	-4666
▁trapped	-4667
▁lip	-4668
▁history	-4669
▁Lilly	-4670
▁appreciate	-4671
xygen	-4672
▁Days	-4673
▁tomatoes	-4674
▁permit	-4675
Because	-4676
▁chore	-4677
▁responsible	-4678
▁prune	-4679
▁yawn	-4680
angers	-4681
▁giggle	-4682
walk	-4683
▁rush	-4684
▁brightly	-4685
▁strangers	-4686
nies	-4687
▁pastel	-4688
▁weight	-4689
!".	-4690
▁operation	-4691
▁potatoes	-4692
▁include	-4693
utter	-4694
▁worms	-4695
▁chewed	-4696
▁wagging	-4697
ising	-4698
▁disagre	-4699
▁jogged	-4700
▁sidewalk	-4701
▁collected	-4702
omed	-4703
▁entered	-4704
Daddy	-4705
ories	-4706
▁underground	-4707
▁web	-4708
ishing	-4709
▁lemons	-4710
▁pleased	-4711
▁castles	-4712
▁second	-4713
▁jogging	-4714
unately	-4715
▁bend	-4716
▁strip	-4717
▁kingdom	-4718
▁chores	-4719
▁presents	-4720
▁Spe	-4721
▁price	-4722
▁wisdom	-4723
▁luck	-4724
▁bouncy	-4725
▁floating	-4726
allow	-4727
▁Soph	-4728
▁scolded	-4729
▁exper	-4730
▁nation	-4731
▁blueberry	-4732
An	-4733
..	-4734
▁Help	-4735
▁increase	-4736
▁kitty	-4737
▁breaks	-4738
▁starts	-4739
▁marching	-4740
▁cheek	-4741
▁heat	-4742
▁solved	-4743
▁deeper	-4744
▁snowball	-4745
▁folded	-4746
▁tracks	-4747
▁growled	-4748
agull	-4749
▁elephants	-4750
▁welcom	-4751
These	-4752
▁softly	-4753
▁mice	-4754
▁emer	-4755
▁manage	-4756
▁Olive	-4757
▁bent	-4758
▁burrow	-4759
▁network	-4760
sing	-4761
▁glo	-4762
▁spaceship	-4763
▁racing	-4764
▁Dave	-4765
▁Bow	-4766
▁Bill	-4767
▁invitation	-4768
Welcome	-4769
▁puzzles	-4770
▁slice	-4771
▁blankets	-4772
▁petted	-4773
▁measured	-4774
▁Coco	-4775
▁dared	-4776
▁memory	-4777
▁budge	-4778
omeday	-4779
vour	-4780
▁introduce	-4781
▁seagull	-4782
▁sip	-4783
bug	-4784
▁spill	-4785
▁Sunday	-4786
▁memories	-4787
▁gloves	-4788
ola	-4789
▁Jazz	-4790
edn	-4791
ednesday	-4792
▁unh	-4793
▁Froggy	-4794
▁encourage	-4795
▁Hop	-4796
▁moves	-4797
use	-4798
▁Wednesday	-4799
▁pedal	-4800
▁begged	-4801
▁appro	-4802
essed	-4803
▁someday	-4804
▁hadn	-4805
hell	-4806
▁simp	-4807
▁below	-4808
▁wreck	-4809
iers	-4810
iki	-4811
ded	-4812
▁pulling	-4813
▁straight	-4814
▁favour	-4815
▁finds	-4816
▁mentioned	-4817
fortunately	-4818
▁petals	-4819
▁snail	-4820
ission	-4821
▁collecting	-4822
Yuck	-4823
▁heads	-4824
ester	-4825
▁oxygen	-4826
▁unlocked	-4827
▁weeks	-4828
▁Owl	-4829
esterday	-4830
oved	-4831
▁Sparky	-4832
▁disagreed	-4833
▁quack	-4834
▁Lee	-4835
▁permission	-4836
▁raised	-4837
▁shouting	-4838
▁seashell	-4839
▁prett	-4840
▁stole	-4841
▁favourite	-4842
▁spike	-4843
▁rested	-4844
▁pitch	-4845
▁Pat	-4846
▁zigzag	-4847
▁unhappy	-4848
▁olives	-4849
▁doctors	-4850
▁anytime	-4851
▁bones	-4852
▁Chick	-4853
▁vel	-4854
▁muffins	-4855
▁Cra	-4856
▁foods	-4857
▁breaking	-4858
▁remained	-4859
▁velvet	-4860
rage	-4861
▁greedy	-4862
▁flies	-4863
▁recognize	-4864
▁ladybug	-4865
▁boo	-4866
▁soldiers	-4867
▁isn	-4868
▁Ra	-4869
▁Big	-4870
▁dried	-4871
▁Grace	-4872
▁hills	-4873
▁Speedy	-4874
▁floated	-4875
▁firefight	-4876
Not	-4877
▁easier	-4878
▁landscape	-4879
▁escap	-4880
▁courage	-4881
▁pears	-4882
lex	-4883
umble	-4884
▁Lola	-4885
▁teasing	-4886
▁resting	-4887
▁furt	-4888
ucked	-4889
▁succeeded	-4890
▁guys	-4891
▁printed	-4892
ored	-4893
▁practicing	-4894
ddy	-4895
▁Finny	-4896
▁died	-4897
▁ourselves	-4898
▁shouts	-4899
▁Tu	-4900
▁mama	-4901
▁sudden	-4902
▁sir	-4903
▁style	-4904
▁crash	-4905
▁strike	-4906
▁attached	-4907
▁gazed	-4908
▁heel	-4909
▁Tuesday	-4910
▁further	-4911
▁lily	-4912
▁candies	-4913
ab	-4914
▁company	-4915
▁possible	-4916
Yum	-4917
ides	-4918
▁whistled	-4919
▁balan	-4920
▁punished	-4921
▁wob	-4922
▁welcomed	-4923
▁prunes	-4924
One	-4925
▁hearts	-4926
ury	-4927
▁slap	-4928
▁cub	-4929
▁drinks	-4930
▁urged	-4931
▁peaches	-4932
▁whisper	-4933
iggly	-4934
▁Pa	-4935
▁mittens	-4936
▁trave	-4937
ution	-4938
▁laught	-4939
▁muscles	-4940
▁laughter	-4941
▁muddy	-4942
▁snapped	-4943
pted	-4944
▁properly	-4945
▁grabs	-4946
▁Have	-4947
▁Alex	-4948
▁surround	-4949
izing	-4950
▁groceries	-4951
▁recognized	-4952
ishes	-4953
▁seats	-4954
▁pinched	-4955
▁God	-4956
eep	-4957
▁mixing	-4958
▁demanded	-4959
eze	-4960
osed	-4961
▁accepted	-4962
▁emergen	-4963
▁waist	-4964
Ex	-4965
Would	-4966
▁lick	-4967
▁delighted	-4968
▁points	-4969
▁press	-4970
▁cape	-4971
igned	-4972
▁See	-4973
anted	-4974
▁doggy	-4975
▁escaped	-4976
▁fashion	-4977
▁Penny	-4978
▁situ	-4979
▁tong	-4980
▁revealed	-4981
▁exit	-4982
▁pulls	-4983
▁sigh	-4984
▁laid	-4985
ah	-4986
▁blink	-4987
▁season	-4988
▁hesit	-4989
▁ble	-4990
hest	-4991
▁hon	-4992
▁stitch	-4993
▁tug	-4994
▁Danny	-4995
▁grant	-4996
▁lung	-4997
act	-4998
▁Paul	-4999
ncle	-5000
amb	-5001
▁Sophie	-5002
▁stair	-5003
▁decorations	-5004
▁pau	-5005
▁melted	-5006
▁meow	-5007
▁image	-5008
▁sprinkles	-5009
Goodbye	-5010
▁Squ	-5011
▁chewing	-5012
▁alien	-5013
▁barks	-5014
▁gained	-5015
ux	-5016
To	-5017
▁shakes	-5018
▁pillows	-5019
▁cuddled	-5020
▁setting	-5021
Anna	-5022
▁Bounce	-5023
▁struggled	-5024
▁shopping	-5025
▁struck	-5026
▁granted	-5027
▁piggy	-5028
▁Did	-5029
riage	-5030
▁slapped	-5031
▁pies	-5032
▁struggle	-5033
▁colourful	-5034
▁tastes	-5035
▁bringing	-5036
▁brings	-5037
▁refre	-5038
▁paused	-5039
▁turning	-5040
▁Is	-5041
▁waiter	-5042
▁simple	-5043
▁contest	-5044
▁burning	-5045
▁spiders	-5046
▁protected	-5047
▁lux	-5048
▁Tuna	-5049
▁breeze	-5050
▁flap	-5051
▁ideas	-5052
Ready	-5053
▁keys	-5054
▁ringing	-5055
▁supposed	-5056
▁created	-5057
▁oh	-5058
▁Hen	-5059
▁zipped	-5060
oe	-5061
▁crow	-5062
▁pets	-5063
▁toes	-5064
▁rides	-5065
▁chirping	-5066
▁pushes	-5067
▁Fox	-5068
▁opin	-5069
▁west	-5070
Ew	-5071
▁pupil	-5072
▁drops	-5073
angled	-5074
▁emergency	-5075
cuse	-5076
▁coats	-5077
▁Bee	-5078
▁wiggle	-5079
▁chips	-5080
▁Or	-5081
▁End	-5082
▁tongue	-5083
▁sliding	-5084
▁flat	-5085
▁golden	-5086
ictory	-5087
▁Ro	-5088
ites	-5089
Excuse	-5090
▁disagree	-5091
▁herbs	-5092
Sh	-5093
▁disturbed	-5094
▁instr	-5095
▁apologize	-5096
▁pearl	-5097
▁Good	-5098
▁Dan	-5099
izes	-5100
▁solution	-5101
▁bravely	-5102
▁sausages	-5103
Mia	-5104
▁approached	-5105
joyed	-5106
▁Henry	-5107
▁celebrated	-5108
Bun	-5109
▁overjoyed	-5110
▁movies	-5111
▁pause	-5112
▁guessed	-5113
▁ago	-5114
▁Annie	-5115
▁singer	-5116
bies	-5117
▁monsters	-5118
▁Ruby	-5119
▁stealing	-5120
▁camping	-5121
▁Whenever	-5122
▁ripped	-5123
▁vanish	-5124
▁shoulders	-5125
▁scoop	-5126
▁luxury	-5127
bba	-5128
▁sorting	-5129
▁Robby	-5130
apping	-5131
kins	-5132
Will	-5133
▁scaring	-5134
And	-5135
▁winner	-5136
▁studied	-5137
▁rescued	-5138
▁prepared	-5139
▁Who	-5140
▁gotten	-5141
reen	-5142
umes	-5143
▁Bubba	-5144
▁gifts	-5145
▁eagerly	-5146
▁studying	-5147
▁experience	-5148
▁radishes	-5149
▁skipping	-5150
▁peel	-5151
▁acted	-5152
▁signs	-5153
▁passing	-5154
apa	-5155
ippy	-5156
▁Baa	-5157
▁swooped	-5158
▁babies	-5159
▁Dory	-5160
▁Sk	-5161
▁mountains	-5162
▁scratched	-5163
year	-5164
▁Tilly	-5165
▁contro	-5166
▁marriage	-5167
idey	-5168
▁achie	-5169
heart	-5170
▁Su	-5171
▁dinosaurs	-5172
ction	-5173
▁nect	-5174
▁nectar	-5175
▁throws	-5176
▁costumes	-5177
▁victory	-5178
ino	-5179
Remember	-5180
▁inch	-5181
▁tex	-5182
▁texture	-5183
edding	-5184
▁bleed	-5185
▁Spidey	-5186
▁fed	-5187
▁stamps	-5188
▁bloomed	-5189
▁nails	-5190
▁Always	-5191
▁famil	-5192
▁rul	-5193
▁shopkeeper	-5194
astles	-5195
▁continue	-5196
▁neighbors	-5197
▁Sharing	-5198
▁result	-5199
iggy	-5200
▁sandcastles	-5201
▁tremb	-5202
▁frosting	-5203
▁eagle	-5204
▁weeping	-5205
▁whistling	-5206
▁cupcakes	-5207
▁east	-5208
Woof	-5209
▁Chr	-5210
▁sorted	-5211
▁none	-5212
▁zookeeper	-5213
▁loose	-5214
▁brus	-5215
▁purred	-5216
rin	-5217
▁zero	-5218
▁sweetheart	-5219
▁relaxed	-5220
▁realize	-5221
▁markers	-5222
▁dire	-5223
▁control	-5224
▁Elly	-5225
▁brand	-5226
▁touching	-5227
▁quite	-5228
usty	-5229
▁bank	-5230
▁Baby	-5231
▁crumb	-5232
▁comforted	-5233
▁wedding	-5234
▁magician	-5235
▁neighb	-5236
▁settled	-5237
▁Everything	-5238
▁First	-5239
▁comple	-5240
▁decorated	-5241
▁weighed	-5242
▁Rabbit	-5243
isty	-5244
▁buzzing	-5245
uackers	-5246
Just	-5247
▁twigs	-5248
▁drag	-5249
▁importance	-5250
▁understanding	-5251
▁sneak	-5252
▁videos	-5253
▁calls	-5254
▁bunch	-5255
▁worker	-5256
▁bun	-5257
▁introduc	-5258
▁shined	-5259
choo	-5260
Sometimes	-5261
▁recorded	-5262
nfortunately	-5263
When	-5264
ud	-5265
▁cones	-5266
araway	-5267
▁sizes	-5268
▁broom	-5269
▁matched	-5270
▁faraway	-5271
▁amazement	-5272
▁parties	-5273
▁weren	-5274
▁flutter	-5275
riend	-5276
▁tucked	-5277
▁wanting	-5278
▁Dog	-5279
inkle	-5280
▁threat	-5281
▁Granny	-5282
▁acting	-5283
▁Follow	-5284
▁Mag	-5285
▁homework	-5286
Sara	-5287
ging	-5288
▁paints	-5289
meal	-5290
▁Sandy	-5291
▁competition	-5292
▁tickle	-5293
▁aff	-5294
▁Rock	-5295
▁Squirrel	-5296
▁Papa	-5297
▁sore	-5298
▁machines	-5299
▁pouring	-5300
gie	-5301
▁melting	-5302
▁lollipops	-5303
▁youth	-5304
urprise	-5305
▁oatmeal	-5306
▁dent	-5307
▁buildings	-5308
▁organizing	-5309
▁regretted	-5310
▁kisses	-5311
▁Maria	-5312
▁measuring	-5313
zing	-5314
▁soaked	-5315
▁blood	-5316
▁learnt	-5317
▁actions	-5318
▁cuddle	-5319
▁guns	-5320
▁plays	-5321
▁expected	-5322
do	-5323
aded	-5324
▁lined	-5325
rr	-5326
Lucy	-5327
▁naps	-5328
▁tune	-5329
allen	-5330
▁bunnies	-5331
▁hated	-5332
▁removed	-5333
▁Mill	-5334
▁roots	-5335
▁Out	-5336
▁silence	-5337
▁challen	-5338
▁curtains	-5339
▁These	-5340
▁wherever	-5341
▁headed	-5342
▁admir	-5343
▁bowed	-5344
▁follows	-5345
▁served	-5346
▁Someone	-5347
▁soared	-5348
▁kicking	-5349
ents	-5350
▁confl	-5351
▁twisty	-5352
gers	-5353
coat	-5354
▁owned	-5355
▁yelling	-5356
▁wags	-5357
right	-5358
▁embarrass	-5359
▁beat	-5360
▁hopes	-5361
▁raincoat	-5362
▁situation	-5363
Gra	-5364
▁sneaky	-5365
▁patterns	-5366
▁concer	-5367
▁shed	-5368
▁lips	-5369
▁conflict	-5370
▁lines	-5371
▁destination	-5372
Surprise	-5373
▁staying	-5374
▁hi	-5375
▁Remember	-5376
▁ruler	-5377
▁treehouse	-5378
▁creation	-5379
▁tangled	-5380
▁argued	-5381
▁pastries	-5382
Mr	-5383
▁dam	-5384
▁losing	-5385
▁pra	-5386
▁stirring	-5387
▁Tony	-5388
▁spoons	-5389
▁ache	-5390
izard	-5391
Ch	-5392
▁chef	-5393
▁playtime	-5394
Meow	-5395
▁arrive	-5396
▁opinion	-5397
▁Millie	-5398
▁pupp	-5399
▁aren	-5400
▁staring	-5401
anta	-5402
▁Me	-5403
▁paintings	-5404
▁May	-5405
▁James	-5406
▁introduced	-5407
▁bye	-5408
▁noon	-5409
▁repeated	-5410
Bob	-5411
Happy	-5412
zen	-5413
▁refreshed	-5414
▁released	-5415
▁Dino	-5416
▁bang	-5417
▁observed	-5418
▁decision	-5419
ther	-5420
▁bites	-5421
please	-5422
▁ours	-5423
mother	-5424
▁healed	-5425
▁girls	-5426
▁Santa	-5427
▁seems	-5428
jam	-5429
▁dragons	-5430
▁keeps	-5431
▁brushed	-5432
▁kneeled	-5433
▁crunch	-5434
▁Aunt	-5435
▁forgi	-5436
▁teased	-5437
ifi	-5438
▁ranger	-5439
sted	-5440
antly	-5441
▁Ex	-5442
reat	-5443
▁bumpy	-5444
▁crumbs	-5445
▁folding	-5446
Al	-5447
▁Wally	-5448
▁frozen	-5449
anes	-5450
▁prints	-5451
▁Ste	-5452
▁stripes	-5453
Really	-5454
▁since	-5455
▁firemen	-5456
va	-5457
▁Fifi	-5458
▁workers	-5459
▁shock	-5460
▁Bo	-5461
▁licks	-5462
▁attack	-5463
▁belly	-5464
▁wizard	-5465
aved	-5466
▁wigg	-5467
▁hurried	-5468
Yummy	-5469
▁shadows	-5470
▁neighbour	-5471
▁grin	-5472
▁fears	-5473
▁ruin	-5474
▁piles	-5475
▁Liz	-5476
▁Woo	-5477
▁Mor	-5478
▁duckling	-5479
▁completed	-5480
▁firefighters	-5481
▁potion	-5482
▁cracked	-5483
▁warmth	-5484
▁works	-5485
▁zooming	-5486
▁bakery	-5487
▁Mo	-5488
▁applauded	-5489
▁Crabby	-5490
▁goodnight	-5491
jamas	-5492
▁Wiggly	-5493
",	-5494
▁Each	-5495
▁glowed	-5496
▁caused	-5497
▁kindly	-5498
▁answers	-5499
▁Slow	-5500
▁reaches	-5501
▁protecting	-5502
▁dentist	-5503
▁planets	-5504
▁motion	-5505
urry	-5506
▁secrets	-5507
ongo	-5508
▁nicer	-5509
▁Christ	-5510
len	-5511
iately	-5512
▁buying	-5513
▁comfy	-5514
▁Snowball	-5515
▁requested	-5516
▁Lizzy	-5517
▁pajamas	-5518
▁six	-5519
▁twin	-5520
▁princesses	-5521
▁achieve	-5522
▁area	-5523
▁baths	-5524
▁Moral	-5525
▁pride	-5526
mas	-5527
▁Frog	-5528
▁admiring	-5529
▁artist	-5530
▁bedtime	-5531
▁recipe	-5532
▁spit	-5533
▁Bongo	-5534
▁librarian	-5535
▁poems	-5536
▁dolphins	-5537
▁yesterday	-5538
▁exact	-5539
▁curled	-5540
▁tickets	-5541
▁examined	-5542
▁Dr	-5543
▁moments	-5544
▁gathering	-5545
▁afford	-5546
▁onions	-5547
ues	-5548
▁parked	-5549
▁Jul	-5550
▁bravery	-5551
▁mister	-5552
▁Che	-5553
▁Clara	-5554
▁stro	-5555
▁tallest	-5556
▁concert	-5557
▁highest	-5558
imy	-5559
▁Christmas	-5560
▁beds	-5561
▁hits	-5562
▁praised	-5563
▁itchy	-5564
▁gaze	-5565
▁Exc	-5566
die	-5567
▁prettiest	-5568
▁napping	-5569
▁Ab	-5570
▁padd	-5571
▁desert	-5572
▁wrist	-5573
▁sits	-5574
▁sting	-5575
▁hitting	-5576
▁Excited	-5577
▁visiting	-5578
▁cubes	-5579
▁signed	-5580
osity	-5581
▁coloring	-5582
▁agreement	-5583
▁da	-5584
ales	-5585
▁confident	-5586
▁recommended	-5587
▁stolen	-5588
▁choices	-5589
uest	-5590
▁happiest	-5591
▁trips	-5592
▁polished	-5593
▁climbs	-5594
▁tablet	-5595
▁Its	-5596
▁marks	-5597
▁sunlight	-5598
▁spraying	-5599
▁trembling	-5600
▁pebbles	-5601
uggy	-5602
▁downstairs	-5603
▁marked	-5604
▁voices	-5605
▁fasc	-5606
▁guest	-5607
ppers	-5608
▁bleeding	-5609
▁scru	-5610
▁smal	-5611
uddles	-5612
▁smallest	-5613
▁beside	-5614
▁si	-5615
▁photos	-5616
▁included	-5617
oming	-5618
▁warnings	-5619
▁ple	-5620
cious	-5621
▁health	-5622
ities	-5623
affes	-5624
Next	-5625
ids	-5626
arac	-5627
▁lied	-5628
▁crunchy	-5629
▁families	-5630
▁eff	-5631
▁sparkles	-5632
▁powers	-5633
▁giraffes	-5634
▁fascin	-5635
▁promises	-5636
▁leader	-5637
▁cash	-5638
ots	-5639
▁exactly	-5640
dies	-5641
eah	-5642
▁usual	-5643
Ok	-5644
▁matching	-5645
▁Wooly	-5646
aracter	-5647
▁mouths	-5648
▁character	-5649
▁including	-5650
▁sticking	-5651
▁goals	-5652
▁Maggie	-5653
ados	-5654
▁traveled	-5655
▁siren	-5656
▁strings	-5657
▁sisters	-5658
▁sparkle	-5659
▁avo	-5660
▁tricked	-5661
ility	-5662
▁immed	-5663
▁immediately	-5664
vers	-5665
indy	-5666
▁pedals	-5667
▁balancing	-5668
▁grandmother	-5669
▁wink	-5670
▁lap	-5671
▁polishing	-5672
▁Suzy	-5673
▁scra	-5674
▁hardly	-5675
▁skunk	-5676
▁cause	-5677
▁rubbing	-5678
▁deser	-5679
▁ann	-5680
Great	-5681
Ha	-5682
▁avocados	-5683
▁stare	-5684
▁theirs	-5685
▁packing	-5686
▁Hootie	-5687
▁loving	-5688
▁poking	-5689
▁hesitant	-5690
uick	-5691
▁behaved	-5692
Have	-5693
▁lets	-5694
▁wooden	-5695
▁Earth	-5696
▁slimy	-5697
isten	-5698
▁Pepper	-5699
▁Friend	-5700
▁wid	-5701
▁precious	-5702
▁batteries	-5703
▁dollhouse	-5704
▁contain	-5705
Yeah	-5706
nie	-5707
▁usually	-5708
▁Rocky	-5709
▁Both	-5710
omething	-5711
▁effort	-5712
▁Mon	-5713
▁Boo	-5714
▁marker	-5715
▁baker	-5716
aster	-5717
▁cous	-5718
▁cashier	-5719
▁snuck	-5720
▁knights	-5721
▁cho	-5722
▁risk	-5723
▁soaring	-5724
▁Buggy	-5725
▁growling	-5726
isies	-5727
▁loaded	-5728
▁beard	-5729
▁wrapping	-5730
▁grey	-5731
iggie	-5732
▁daisies	-5733
hello	-5734
▁limes	-5735
▁Slowly	-5736
▁scooped	-5737
▁snatched	-5738
▁snowballs	-5739
ishy	-5740
▁safer	-5741
▁scrubbed	-5742
▁chop	-5743
▁accom	-5744
▁pockets	-5745
▁eight	-5746
oto	-5747
▁becoming	-5748
▁giggling	-5749
▁El	-5750
▁swims	-5751
▁conv	-5752
▁crabs	-5753
▁opening	-5754
▁curly	-5755
▁accompl	-5756
▁discovery	-5757
▁Po	-5758
roken	-5759
▁prayer	-5760
▁lands	-5761
indro	-5762
▁shelves	-5763
▁beamed	-5764
▁raindro	-5765
▁ornaments	-5766
enty	-5767
▁brushes	-5768
▁ni	-5769
▁Happy	-5770
▁pastels	-5771
▁bars	-5772
▁fever	-5773
▁clowns	-5774
▁towels	-5775
▁hen	-5776
▁talented	-5777
▁replaced	-5778
eed	-5779
▁brid	-5780
▁knelt	-5781
broken	-5782
▁praying	-5783
▁watches	-5784
▁delivered	-5785
▁pencils	-5786
▁Toto	-5787
▁instruct	-5788
oys	-5789
▁fairies	-5790
ivity	-5791
She	-5792
▁alright	-5793
▁fascinated	-5794
▁surrounded	-5795
▁blocking	-5796
using	-5797
▁Oink	-5798
Amy	-5799
fit	-5800
▁glitter	-5801
▁least	-5802
▁peppers	-5803
▁firefly	-5804
▁screaming	-5805
olph	-5806
▁bridges	-5807
tuce	-5808
▁defe	-5809
ences	-5810
▁seesaw	-5811
▁remembering	-5812
▁woof	-5813
▁Chicky	-5814
▁lettuce	-5815
▁insects	-5816
▁stain	-5817
▁item	-5818
▁perched	-5819
river	-5820
shing	-5821
sequ	-5822
▁consequ	-5823
▁beg	-5824
▁horns	-5825
▁heartbroken	-5826
Mama	-5827
▁thrilled	-5828
▁whatever	-5829
▁dusty	-5830
▁sweets	-5831
▁heav	-5832
guing	-5833
▁Fe	-5834
▁surface	-5835
▁instructions	-5836
▁tigers	-5837
brush	-5838
▁screams	-5839
▁thorn	-5840
▁temper	-5841
▁Milly	-5842
▁rainbows	-5843
▁seashells	-5844
icked	-5845
ppa	-5846
anna	-5847
▁reply	-5848
▁outfit	-5849
▁Star	-5850
▁bead	-5851
▁Not	-5852
▁wandering	-5853
▁paying	-5854
▁arguing	-5855
▁colours	-5856
▁wondering	-5857
▁complained	-5858
▁snakes	-5859
▁cott	-5860
▁sadness	-5861
▁avoid	-5862
weet	-5863
▁blooming	-5864
▁bodies	-5865
fied	-5866
▁consequences	-5867
▁Thanks	-5868
▁Car	-5869
▁Sky	-5870
avi	-5871
lowers	-5872
▁united	-5873
bbled	-5874
▁matters	-5875
▁comm	-5876
▁smiley	-5877
uctantly	-5878
▁project	-5879
▁crackers	-5880
▁steep	-5881
!'	-5882
ops	-5883
▁Frank	-5884
mel	-5885
▁stretching	-5886
▁fault	-5887
Little	-5888
▁sides	-5889
▁Something	-5890
▁hugging	-5891
▁decorating	-5892
▁eats	-5893
▁Peppa	-5894
▁improved	-5895
een	-5896
bage	-5897
▁penguins	-5898
▁Prin	-5899
▁patience	-5900
!",	-5901
chy	-5902
▁adult	-5903
ners	-5904
▁BunBun	-5905
▁garbage	-5906
▁raindrops	-5907
▁temperature	-5908
▁quacked	-5909
ept	-5910
▁mushrooms	-5911
▁Birdie	-5912
▁challenge	-5913
▁wiggled	-5914
▁mane	-5915
▁heroes	-5916
▁Cla	-5917
idnight	-5918
Grandma	-5919
▁Foxy	-5920
▁pots	-5921
▁ribbons	-5922
▁Water	-5923
▁adding	-5924
▁obe	-5925
neath	-5926
▁overcome	-5927
▁Afterwards	-5928
▁filling	-5929
▁Thom	-5930
avid	-5931
▁chat	-5932
▁swept	-5933
▁Steve	-5934
▁wadd	-5935
go	-5936
rip	-5937
▁Midnight	-5938
▁recording	-5939
▁reluctantly	-5940
Today	-5941
▁villag	-5942
▁prettier	-5943
▁cough	-5944
▁darker	-5945
▁Green	-5946
▁sparkling	-5947
▁dipped	-5948
atie	-5949
▁peeking	-5950
▁David	-5951
▁stem	-5952
▁finishing	-5953
▁dads	-5954
▁flown	-5955
▁Thomas	-5956
▁scored	-5957
▁clearing	-5958
▁waits	-5959
▁bottles	-5960
▁diving	-5961
Boo	-5962
▁lamb	-5963
Always	-5964
▁responsib	-5965
▁wond	-5966
▁suffering	-5967
▁Chickie	-5968
▁sings	-5969
eling	-5970
▁fab	-5971
▁fabric	-5972
▁tim	-5973
bers	-5974
▁reminder	-5975
▁creating	-5976
▁delivering	-5977
▁obey	-5978
oline	-5979
▁beads	-5980
▁Hope	-5981
▁watering	-5982
▁Yesterday	-5983
▁stung	-5984
▁screwd	-5985
▁reun	-5986
▁Bouncy	-5987
crow	-5988
▁tugged	-5989
▁performed	-5990
allowed	-5991
▁sports	-5992
▁swallowed	-5993
hive	-5994
▁gears	-5995
▁pumpkins	-5996
▁beehive	-5997
▁dreamt	-5998
▁tiss	-5999
▁cousin	-6000
▁quarreling	-6001
Jo	-6002
ason	-6003
▁awake	-6004
▁Cr	-6005
▁rocking	-6006
▁flavors	-6007
▁paddled	-6008
▁inviting	-6009
umm	-6010
▁screwdriver	-6011
▁separated	-6012
shm	-6013
▁Rud	-6014
▁villagers	-6015
▁shivered	-6016
▁rust	-6017
shmallow	-6018
stick	-6019
▁rocked	-6020
▁proper	-6021
▁glasses	-6022
ashed	-6023
▁helpers	-6024
▁shirts	-6025
▁cheering	-6026
▁provided	-6027
▁Pin	-6028
▁sneaked	-6029
▁curiosity	-6030
igail	-6031
▁chip	-6032
▁Feeling	-6033
▁coc	-6034
▁genie	-6035
▁Beh	-6036
▁valued	-6037
▁sneezing	-6038
itches	-6039
▁marshmallow	-6040
▁Rudolph	-6041
▁roses	-6042
▁sewed	-6043
▁wonders	-6044
▁cond	-6045
▁boom	-6046
▁Friends	-6047
achel	-6048
▁awe	-6049
▁forgetting	-6050
'.	-6051
▁pennies	-6052
▁Princess	-6053
▁hissed	-6054
▁Abigail	-6055
▁Behind	-6056
▁basement	-6057
▁Mat	-6058
▁snowmen	-6059
▁flames	-6060
itted	-6061
▁balanced	-6062
▁remem	-6063
ambi	-6064
▁remembers	-6065
▁scarecrow	-6066
▁million	-6067
▁logs	-6068
▁colored	-6069
anging	-6070
▁thro	-6071
▁wound	-6072
▁Rachel	-6073
▁meals	-6074
▁roaring	-6075
▁throat	-6076
▁grinned	-6077
▁Bambi	-6078
▁feast	-6079
weed	-6080
▁scales	-6081
▁Ol	-6082
inkled	-6083
alloween	-6084
▁mission	-6085
...	-6086
▁By	-6087
▁ais	-6088
▁Beep	-6089
▁rockets	-6090
▁reunited	-6091
▁seaweed	-6092
▁drums	-6093
▁Flop	-6094
▁cuddly	-6095
▁Halloween	-6096
▁surroundings	-6097
▁sled	-6098
▁restored	-6099
▁supplies	-6100
▁underneath	-6101
oh	-6102
▁bare	-6103
▁imagining	-6104
▁superheroes	-6105
▁sale	-6106
▁tasks	-6107
Wh	-6108
bbing	-6109
▁Watch	-6110
▁Joy	-6111
▁aud	-6112
▁cowb	-6113
▁keeper	-6114
ivery	-6115
plash	-6116
▁refle	-6117
▁picnics	-6118
Ah	-6119
zes	-6120
iles	-6121
▁insist	-6122
▁Like	-6123
▁Cindy	-6124
▁needles	-6125
▁sway	-6126
▁third	-6127
Achoo	-6128
▁kites	-6129
▁behavi	-6130
▁exh	-6131
▁ast	-6132
▁Sparkles	-6133
▁Choo	-6134
▁tissue	-6135
bur	-6136
Sally	-6137
▁paddle	-6138
▁gross	-6139
Oops	-6140
▁tramp	-6141
▁Lion	-6142
▁explorer	-6143
▁peacefully	-6144
sty	-6145
chievous	-6146
▁Freddie	-6147
▁mischievous	-6148
Or	-6149
▁complaining	-6150
Jack	-6151
▁plenty	-6152
▁tipto	-6153
▁indeed	-6154
vant	-6155
▁copy	-6156
▁Jess	-6157
▁gems	-6158
▁vanilla	-6159
.'	-6160
▁Pl	-6161
▁wins	-6162
▁wires	-6163
▁crowd	-6164
▁grandd	-6165
▁buckets	-6166
▁feeding	-6167
▁Ray	-6168
▁Stop	-6169
▁roads	-6170
▁crossing	-6171
▁trampoline	-6172
elvet	-6173
▁splashes	-6174
▁ripe	-6175
▁direction	-6176
▁audience	-6177
▁handsome	-6178
▁untie	-6179
▁refuse	-6180
▁Ju	-6181
▁satis	-6182
▁honk	-6183
racted	-6184
▁sweat	-6185
Choo	-6186
▁tails	-6187
▁mints	-6188
▁Sure	-6189
▁Birthday	-6190
Bird	-6191
▁cobwebs	-6192
▁pointy	-6193
▁mer	-6194
▁faced	-6195
▁minerals	-6196
▁tickled	-6197
▁stumble	-6198
▁muscle	-6199
▁purr	-6200
utious	-6201
▁granddaughter	-6202
isdom	-6203
▁remote	-6204
igning	-6205
Watch	-6206
per	-6207
▁winked	-6208
ledge	-6209
▁Duck	-6210
▁rainy	-6211
▁rising	-6212
▁reaching	-6213
▁delivery	-6214
▁knowledge	-6215
ody	-6216
▁froze	-6217
▁planting	-6218
cers	-6219
▁Je	-6220
▁firefighter	-6221
ushing	-6222
▁arrows	-6223
▁sewing	-6224
▁draws	-6225
▁timer	-6226
▁Being	-6227
▁tractor	-6228
▁mes	-6229
▁Our	-6230
ogo	-6231
Benny	-6232
▁hearing	-6233
▁windy	-6234
▁Jam	-6235
▁Pippa	-6236
▁borrowed	-6237
▁squares	-6238
▁joking	-6239
njoy	-6240
Silly	-6241
▁Ally	-6242
▁vegg	-6243
▁marshmallows	-6244
▁cautious	-6245
Tommy	-6246
▁drown	-6247
umper	-6248
▁steady	-6249
▁Pinchy	-6250
▁explo	-6251
▁fluttering	-6252
▁sadder	-6253
Fl	-6254
Those	-6255
▁leading	-6256
▁unpacked	-6257
▁Flopsy	-6258
▁masks	-6259
▁leaning	-6260
▁decides	-6261
▁pout	-6262
▁guests	-6263
▁patted	-6264
▁zebras	-6265
▁responsibility	-6266
icky	-6267
▁objects	-6268
▁forgiven	-6269
▁magnets	-6270
▁Nan	-6271
▁mater	-6272
▁material	-6273
▁traded	-6274
▁performing	-6275
▁Moo	-6276
ument	-6277
▁discovering	-6278
▁Ad	-6279
▁freed	-6280
▁sights	-6281
▁flags	-6282
tle	-6283
▁changing	-6284
band	-6285
▁hike	-6286
▁untied	-6287
▁Ho	-6288
▁scur	-6289
▁direct	-6290
▁veggies	-6291
▁Bree	-6292
▁Frosty	-6293
▁causing	-6294
▁forks	-6295
▁Spring	-6296
▁Because	-6297
▁meatball	-6298
uing	-6299
▁celebrating	-6300
▁Jan	-6301
itcase	-6302
▁flight	-6303
▁creativity	-6304
▁surv	-6305
▁suitcase	-6306
▁claps	-6307
▁rule	-6308
▁shrug	-6309
▁scurried	-6310
▁birdhouse	-6311
▁den	-6312
▁puppies	-6313
▁burnt	-6314
▁spikes	-6315
▁speaking	-6316
▁widened	-6317
▁tables	-6318
▁Thumper	-6319
atul	-6320
▁helmets	-6321
Goodnight	-6322
▁deal	-6323
▁Ava	-6324
▁cans	-6325
▁loading	-6326
▁writes	-6327
▁choo	-6328
▁Stitch	-6329
▁surfing	-6330
▁completely	-6331
otten	-6332
ans	-6333
ena	-6334
▁mailed	-6335
ades	-6336
▁For	-6337
angles	-6338
▁chuck	-6339
▁tricky	-6340
Stay	-6341
▁rotten	-6342
aut	-6343
▁drives	-6344
▁Gogo	-6345
▁tunnels	-6346
▁dresser	-6347
▁Twinkle	-6348
▁stacked	-6349
▁sunflowers	-6350
▁bows	-6351
▁repa	-6352
▁catches	-6353
▁bowls	-6354
▁damage	-6355
▁players	-6356
uke	-6357
▁biting	-6358
iar	-6359
▁written	-6360
▁distracted	-6361
▁worries	-6362
annah	-6363
▁sweeties	-6364
▁shoo	-6365
▁rings	-6366
fl	-6367
▁convers	-6368
▁napkins	-6369
▁repaired	-6370
pare	-6371
▁Dare	-6372
▁meatballs	-6373
lings	-6374
▁begin	-6375
▁rumble	-6376
▁snuggle	-6377
▁greet	-6378
▁haven	-6379
akes	-6380
▁pigeons	-6381
▁designed	-6382
▁wasted	-6383
▁polar	-6384
▁moo	-6385
▁lending	-6386
▁Rat	-6387
▁countryside	-6388
▁jud	-6389
▁Sc	-6390
▁peas	-6391
▁Mouse	-6392
▁san	-6393
▁knocking	-6394
▁printing	-6395
▁increased	-6396
▁interested	-6397
▁Love	-6398
▁wishing	-6399
▁scraped	-6400
▁Olly	-6401
▁risks	-6402
▁Julie	-6403
▁barely	-6404
ounced	-6405
attered	-6406
▁lifting	-6407
▁behaving	-6408
▁dropping	-6409
▁Bye	-6410
▁pecked	-6411
▁directions	-6412
▁Biggie	-6413
▁peered	-6414
▁outdo	-6415
▁twirling	-6416
John	-6417
free	-6418
irm	-6419
ern	-6420
▁sank	-6421
Fluffy	-6422
▁surfboard	-6423
▁waddled	-6424
▁Abby	-6425
▁backwards	-6426
▁performance	-6427
▁dep	-6428
ably	-6429
eds	-6430
▁ty	-6431
▁rushing	-6432
▁grandpare	-6433
▁wiping	-6434
step	-6435
▁wobb	-6436
ler	-6437
▁Beth	-6438
▁Wisdom	-6439
▁toaster	-6440
▁robb	-6441
▁Everyday	-6442
screen	-6443
▁pops	-6444
▁discussed	-6445
▁whose	-6446
▁Bug	-6447
▁chuckled	-6448
▁bene	-6449
▁chases	-6450
▁spong	-6451
▁teaches	-6452
▁reflection	-6453
▁Lou	-6454
uly	-6455
atur	-6456
▁tires	-6457
▁aimed	-6458
▁politely	-6459
▁rotting	-6460
▁Poor	-6461
▁beloved	-6462
▁behavior	-6463
▁stays	-6464
▁sunscreen	-6465
▁Jamie	-6466
▁willing	-6467
▁slither	-6468
▁rip	-6469
▁wee	-6470
▁crept	-6471
▁Splash	-6472
▁attacked	-6473
▁Mir	-6474
artment	-6475
▁characters	-6476
▁offic	-6477
int	-6478
▁astron	-6479
▁cuts	-6480
▁afar	-6481
▁lighter	-6482
▁cotton	-6483
▁dragged	-6484
▁spreading	-6485
▁salty	-6486
▁pleasure	-6487
▁astronaut	-6488
▁triangles	-6489
▁fits	-6490
▁truly	-6491
▁beneath	-6492
▁watermel	-6493
ongr	-6494
iled	-6495
▁glued	-6496
▁Flutter	-6497
▁Leave	-6498
▁surrendered	-6499
loe	-6500
iding	-6501
▁sailors	-6502
ongratul	-6503
▁Nina	-6504
▁Two	-6505
cl	-6506
▁grows	-6507
▁heavier	-6508
▁playroom	-6509
▁items	-6510
▁thrown	-6511
▁accomplish	-6512
▁survive	-6513
▁peck	-6514
▁rustling	-6515
▁uses	-6516
▁farther	-6517
▁Josh	-6518
aws	-6519
▁covers	-6520
▁vines	-6521
▁Sun	-6522
▁sponge	-6523
▁flapping	-6524
▁Catty	-6525
▁scient	-6526
cher	-6527
ccoon	-6528
▁Enjoy	-6529
▁raccoon	-6530
you	-6531
▁munch	-6532
▁scientist	-6533
cope	-6534
▁Hopper	-6535
▁aisle	-6536
▁bracelets	-6537
ives	-6538
▁cent	-6539
▁teamwork	-6540
▁Blink	-6541
▁Chloe	-6542
▁neither	-6543
▁merma	-6544
▁owners	-6545
elace	-6546
▁amount	-6547
▁shoelace	-6548
▁Put	-6549
▁prick	-6550
▁Hippy	-6551
▁disturbing	-6552
▁watermelon	-6553
▁Grumpy	-6554
▁Far	-6555
▁Mil	-6556
▁plain	-6557
▁learns	-6558
▁jackets	-6559
▁pans	-6560
▁blown	-6561
▁Bop	-6562
▁dancers	-6563
▁laying	-6564
▁dollars	-6565
rance	-6566
▁baller	-6567
▁nood	-6568
▁burger	-6569
onies	-6570
▁sighs	-6571
▁speeding	-6572
▁deserve	-6573
ica	-6574
nytime	-6575
▁conn	-6576
ude	-6577
▁honked	-6578
▁ropes	-6579
▁humans	-6580
▁puppet	-6581
▁plans	-6582
▁wobbled	-6583
▁grandparents	-6584
▁determination	-6585
▁mosquitoes	-6586
esome	-6587
▁Ratty	-6588
boat	-6589
▁delayed	-6590
▁fact	-6591
▁bully	-6592
▁gardener	-6593
▁burst	-6594
▁rusty	-6595
rup	-6596
▁satisfied	-6597
▁haird	-6598
▁pretends	-6599
▁suffered	-6600
itched	-6601
▁outdoors	-6602
gets	-6603
▁Welcome	-6604
▁onwards	-6605
▁strongest	-6606
▁officers	-6607
Time	-6608
▁aeroplanes	-6609
▁die	-6610
▁calmed	-6611
▁awesome	-6612
Bad	-6613
▁seven	-6614
▁drowned	-6615
▁Excitedly	-6616
▁lungs	-6617
bie	-6618
▁Wil	-6619
▁films	-6620
Our	-6621
▁wiggly	-6622
▁unfortunately	-6623
▁ponies	-6624
▁ballerina	-6625
▁paintbrush	-6626
hee	-6627
▁Auntie	-6628
▁reason	-6629
▁permitted	-6630
▁questioned	-6631
▁fleas	-6632
ition	-6633
▁stool	-6634
▁slowed	-6635
llen	-6636
ker	-6637
▁sending	-6638
▁Want	-6639
▁passports	-6640
lled	-6641
▁ruining	-6642
kend	-6643
▁month	-6644
▁weekend	-6645
▁storekeeper	-6646
▁birdy	-6647
▁races	-6648
▁shrunk	-6649
▁Jones	-6650
ousy	-6651
▁steer	-6652
▁age	-6653
form	-6654
▁cocoon	-6655
▁Lena	-6656
▁forehead	-6657
but	-6658
▁Chew	-6659
▁ships	-6660
▁dryer	-6661
▁Anne	-6662
▁dots	-6663
▁conversation	-6664
▁bravest	-6665
▁guessing	-6666
inda	-6667
arter	-6668
▁fires	-6669
▁unf	-6670
▁Mousy	-6671
▁entrance	-6672
▁noses	-6673
▁Farmer	-6674
▁badge	-6675
▁twinkle	-6676
▁shrinking	-6677
hog	-6678
▁smarter	-6679
ooky	-6680
ighty	-6681
▁colder	-6682
▁rains	-6683
aped	-6684
▁spice	-6685
▁meowing	-6686
▁starfish	-6687
▁celebration	-6688
▁Adam	-6689
▁Crusty	-6690
▁necklaces	-6691
▁servant	-6692
▁blows	-6693
▁hus	-6694
oni	-6695
▁afterwards	-6696
▁swimsuit	-6697
▁drawn	-6698
▁wobble	-6699
▁Ping	-6700
itude	-6701
▁knees	-6702
Fo	-6703
▁warmer	-6704
▁windowsill	-6705
▁Rover	-6706
▁Puddles	-6707
▁sense	-6708
Hold	-6709
▁Nice	-6710
▁swans	-6711
rie	-6712
▁bothering	-6713
▁opp	-6714
▁neatly	-6715
▁sib	-6716
▁forgiving	-6717
▁crew	-6718
atches	-6719
▁pens	-6720
▁cloudy	-6721
▁cowboy	-6722
▁Oliver	-6723
▁slam	-6724
Ro	-6725
▁conduct	-6726
▁Sorry	-6727
▁hedgehog	-6728
▁Fu	-6729
amboo	-6730
▁mermaid	-6731
▁hairdress	-6732
Then	-6733
rious	-6734
ears	-6735
inkling	-6736
▁slower	-6737
Mum	-6738
▁Hannah	-6739
▁pins	-6740
▁oysters	-6741
▁exploded	-6742
▁Yes	-6743
▁brushing	-6744
▁conductor	-6745
▁Mad	-6746
▁husband	-6747
▁swords	-6748
▁coug	-6749
▁inj	-6750
Some	-6751
▁hairdresser	-6752
▁vehicles	-6753
▁creations	-6754
▁puck	-6755
▁forgiveness	-6756
▁Cuddles	-6757
Teddy	-6758
▁magazines	-6759
▁rout	-6760
▁resisted	-6761
Fine	-6762
Billy	-6763
▁buzzed	-6764
▁blocked	-6765
▁aliens	-6766
▁stitches	-6767
▁Mighty	-6768
▁listens	-6769
yes	-6770
▁firm	-6771
▁squishy	-6772
▁fuzzy	-6773
▁bamboo	-6774
▁bumps	-6775
▁Mira	-6776
▁Claire	-6777
▁solving	-6778
▁burying	-6779
▁poster	-6780
▁Whist	-6781
▁Milo	-6782
▁yielded	-6783
▁agrees	-6784
▁gracefully	-6785
▁Jilly	-6786
▁scratching	-6787
▁shaped	-6788
airy	-6789
▁melons	-6790
▁surprising	-6791
ider	-6792
▁worrying	-6793
▁nests	-6794
Cl	-6795
Run	-6796
▁breathed	-6797
▁policeman	-6798
▁Get	-6799
Mummy	-6800
Listen	-6801
▁stern	-6802
▁passen	-6803
no	-6804
▁master	-6805
ddie	-6806
▁wobbly	-6807
▁closes	-6808
▁Stay	-6809
▁planning	-6810
▁department	-6811
▁spooky	-6812
Cat	-6813
une	-6814
▁Dot	-6815
▁preparing	-6816
▁relief	-6817
▁supported	-6818
ossible	-6819
▁misses	-6820
▁prickly	-6821
bably	-6822
▁impossible	-6823
▁probably	-6824
apt	-6825
▁Pr	-6826
▁coral	-6827
▁frowning	-6828
ading	-6829
▁flas	-6830
▁kittens	-6831
▁det	-6832
▁defeated	-6833
▁rubs	-6834
▁Those	-6835
▁Matt	-6836
bbie	-6837
ironment	-6838
▁Susan	-6839
▁kit	-6840
▁reass	-6841
▁environment	-6842
▁wrinkled	-6843
▁younger	-6844
▁Jeff	-6845
pite	-6846
ouch	-6847
▁among	-6848
bell	-6849
▁floors	-6850
▁fishy	-6851
ts	-6852
▁handing	-6853
▁aware	-6854
▁foc	-6855
▁focused	-6856
▁tapped	-6857
▁noodles	-6858
▁displayed	-6859
▁belongings	-6860
▁rolls	-6861
fall	-6862
▁hunters	-6863
fire	-6864
▁uns	-6865
▁Crab	-6866
Follow	-6867
▁airplanes	-6868
ection	-6869
idents	-6870
▁startled	-6871
▁tying	-6872
▁soaking	-6873
▁tiptoed	-6874
▁Henny	-6875
▁focus	-6876
▁vent	-6877
▁Fire	-6878
▁Eddie	-6879
lephant	-6880
▁screws	-6881
▁craft	-6882
▁thoughts	-6883
ky	-6884
Shh	-6885
▁lower	-6886
▁manag	-6887
▁entire	-6888
▁spoonful	-6889
▁scarves	-6890
ayla	-6891
▁annoy	-6892
▁tar	-6893
▁Jessie	-6894
▁Luke	-6895
▁convin	-6896
▁drifted	-6897
▁sailboat	-6898
▁und	-6899
▁lent	-6900
ido	-6901
▁Dizzy	-6902
ccidents	-6903
▁clues	-6904
▁cheeks	-6905
▁overhe	-6906
▁liqu	-6907
▁hesitated	-6908
▁damaged	-6909
though	-6910
..."	-6911
▁Ant	-6912
uments	-6913
▁commun	-6914
▁activ	-6915
▁floats	-6916
▁merry	-6917
▁fins	-6918
▁reapp	-6919
▁breathing	-6920
▁Sparkle	-6921
erg	-6922
▁licking	-6923
▁Along	-6924
▁Butter	-6925
▁waking	-6926
▁Goodbye	-6927
▁grabbing	-6928
▁wept	-6929
▁siblings	-6930
ected	-6931
Le	-6932
▁tipped	-6933
rrr	-6934
ibbit	-6935
▁Peep	-6936
▁wears	-6937
▁sprout	-6938
▁dances	-6939
▁stopping	-6940
▁Sw	-6941
▁flipped	-6942
▁luckily	-6943
▁sweetest	-6944
▁hider	-6945
▁robots	-6946
▁blinking	-6947
▁sheets	-6948
acles	-6949
yond	-6950
▁beyond	-6951
▁stomped	-6952
▁seeker	-6953
▁thud	-6954
▁twisting	-6955
▁guide	-6956
▁Fido	-6957
▁yelp	-6958
▁Without	-6959
storm	-6960
▁playd	-6961
▁action	-6962
▁sharks	-6963
▁convince	-6964
▁twinkling	-6965
▁Jac	-6966
▁shoelaces	-6967
▁click	-6968
▁cust	-6969
▁dived	-6970
▁toss	-6971
▁postman	-6972
Mittens	-6973
▁rescuing	-6974
▁scratches	-6975
▁Rolly	-6976
▁figured	-6977
▁joked	-6978
▁dar	-6979
▁backed	-6980
▁bitten	-6981
▁serving	-6982
kelly	-6983
▁grip	-6984
▁figures	-6985
▁sprinkled	-6986
rect	-6987
▁ignoring	-6988
uzz	-6989
▁everyday	-6990
▁Rain	-6991
▁custom	-6992
▁reminding	-6993
iment	-6994
▁notes	-6995
▁Linda	-6996
▁Mix	-6997
▁pouted	-6998
▁streamers	-6999
▁activities	-7000
zie	-7001
▁images	-7002
▁Whistle	-7003
▁overheard	-7004
▁Wilbur	-7005
▁cleaner	-7006
▁packages	-7007
▁Gina	-7008
▁sobbed	-7009
shaped	-7010
▁snowfl	-7011
▁neighbourhood	-7012
▁Skelly	-7013
▁Jenna	-7014
▁knots	-7015
▁seconds	-7016
▁dressing	-7017
▁Monkey	-7018
prin	-7019
▁handful	-7020
▁jobs	-7021
▁correct	-7022
▁encourag	-7023
▁nibble	-7024
▁secure	-7025
▁lipstick	-7026
▁twice	-7027
▁lessons	-7028
▁Ash	-7029
▁treated	-7030
▁Tree	-7031
▁darkness	-7032
▁Jacob	-7033
▁decoration	-7034
▁weeds	-7035
▁mattered	-7036
▁worn	-7037
▁Mikey	-7038
▁smoking	-7039
▁nine	-7040
▁softer	-7041
▁Paws	-7042
▁Patch	-7043
Roar	-7044
▁trans	-7045
▁groups	-7046
▁unw	-7047
▁Elephant	-7048
▁yourselves	-7049
▁explorers	-7050
▁jars	-7051
▁reversed	-7052
▁convinced	-7053
▁situations	-7054
▁aside	-7055
▁syrup	-7056
▁Jon	-7057
umbling	-7058
▁ease	-7059
▁business	-7060
▁familiar	-7061
fly	-7062
ifully	-7063
▁Dee	-7064
▁kicks	-7065
rier	-7066
▁knives	-7067
▁talents	-7068
ppies	-7069
▁doorbell	-7070
▁encouragement	-7071
▁hallway	-7072
▁students	-7073
ueen	-7074
▁teap	-7075
▁Dara	-7076
▁beautifully	-7077
Tweet	-7078
aying	-7079
▁silent	-7080
▁allerg	-7081
▁ramp	-7082
▁streets	-7083
▁Ma	-7084
bra	-7085
▁pupils	-7086
▁slices	-7087
▁haircuts	-7088
▁argument	-7089
oke	-7090
ipes	-7091
obody	-7092
▁plot	-7093
▁earn	-7094
▁bathing	-7095
sm	-7096
▁sweep	-7097
▁teapot	-7098
vroom	-7099
▁tested	-7100
▁rewarded	-7101
▁liquid	-7102
▁ev	-7103
▁Suzie	-7104
child	-7105
▁beeped	-7106
▁Clau	-7107
ora	-7108
pen	-7109
shions	-7110
▁sprang	-7111
iece	-7112
▁wow	-7113
▁Other	-7114
Rex	-7115
▁spells	-7116
▁jets	-7117
urious	-7118
▁Claus	-7119
▁instruments	-7120
cept	-7121
▁reads	-7122
▁angels	-7123
▁however	-7124
▁artwork	-7125
▁labels	-7126
▁transform	-7127
rink	-7128
▁counts	-7129
aret	-7130
▁shines	-7131
▁slipping	-7132
▁refreshing	-7133
▁Copper	-7134
▁rivers	-7135
▁recess	-7136
▁hotter	-7137
▁Dodo	-7138
▁Nana	-7139
▁nug	-7140
▁Cathy	-7141
▁waterfall	-7142
wk	-7143
▁covering	-7144
▁Wink	-7145
▁center	-7146
▁rather	-7147
▁appreciated	-7148
Whee	-7149
▁grandchild	-7150
▁cupcake	-7151
▁height	-7152
▁toolbox	-7153
line	-7154
▁encouraging	-7155
eese	-7156
▁Rudy	-7157
▁maker	-7158
▁wipes	-7159
▁partic	-7160
lling	-7161
▁ghosts	-7162
▁manners	-7163
▁crashing	-7164
▁quarreled	-7165
▁dot	-7166
▁beam	-7167
oring	-7168
▁Skip	-7169
▁wisely	-7170
▁poppies	-7171
belt	-7172
▁campfire	-7173
▁panicked	-7174
▁Chuck	-7175
ware	-7176
▁vowed	-7177
▁posit	-7178
▁seatbelt	-7179
▁squished	-7180
▁popsic	-7181
▁Jessica	-7182
▁designing	-7183
▁Lots	-7184
▁combed	-7185
Dog	-7186
cycles	-7187
▁creamy	-7188
▁mac	-7189
▁shin	-7190
▁cushions	-7191
▁heading	-7192
▁insp	-7193
▁pound	-7194
▁yells	-7195
▁tighter	-7196
▁greeted	-7197
▁Fish	-7198
▁Mel	-7199
mates	-7200
▁shattered	-7201
abra	-7202
▁def	-7203
issy	-7204
▁Fuzzy	-7205
▁cautiously	-7206
▁prevented	-7207
▁hawk	-7208
▁hides	-7209
orter	-7210
▁knocks	-7211
▁thorns	-7212
▁Near	-7213
▁pedaled	-7214
▁trembled	-7215
▁loops	-7216
▁seagulls	-7217
▁nuggets	-7218
▁routine	-7219
▁buddy	-7220
▁slammed	-7221
▁batch	-7222
▁imaginary	-7223
▁fart	-7224
▁squeal	-7225
▁tossed	-7226
▁swimmer	-7227
▁beaver	-7228
hew	-7229
▁Cara	-7230
▁Willy	-7231
bit	-7232
▁mixture	-7233
▁ties	-7234
asm	-7235
immer	-7236
▁poisonous	-7237
▁Tara	-7238
▁geese	-7239
▁paths	-7240
▁reassured	-7241
▁exhau	-7242
▁Larry	-7243
▁tricycle	-7244
▁chefs	-7245
▁blast	-7246
▁ventured	-7247
worm	-7248
▁scen	-7249
▁appearance	-7250
▁Nobody	-7251
▁Years	-7252
▁Nothing	-7253
▁roast	-7254
▁raking	-7255
▁motorcycles	-7256
▁evil	-7257
▁Peanut	-7258
Dear	-7259
▁soundly	-7260
▁Julia	-7261
▁languages	-7262
▁Sof	-7263
▁spices	-7264
▁weapons	-7265
▁bulbs	-7266
▁distract	-7267
?",	-7268
abel	-7269
▁testing	-7270
▁farthest	-7271
▁dangers	-7272
▁smelling	-7273
▁healthier	-7274
ms	-7275
▁puff	-7276
ments	-7277
unched	-7278
▁destroying	-7279
▁Try	-7280
▁Accidents	-7281
▁self	-7282
ummies	-7283
▁unsure	-7284
▁nur	-7285
▁plumber	-7286
▁Squeak	-7287
▁pays	-7288
▁judges	-7289
▁burgers	-7290
▁anger	-7291
▁leads	-7292
▁occ	-7293
▁tuck	-7294
▁charge	-7295
aven	-7296
▁Fishy	-7297
rig	-7298
▁ends	-7299
▁tummies	-7300
bbling	-7301
▁fries	-7302
▁defeat	-7303
▁tempt	-7304
▁crops	-7305
▁kings	-7306
▁retrie	-7307
▁Snap	-7308
▁shown	-7309
cho	-7310
▁tweet	-7311
▁symbols	-7312
▁Laser	-7313
▁Gray	-7314
▁designs	-7315
cts	-7316
▁materials	-7317
▁Listen	-7318
▁hatched	-7319
▁allowance	-7320
▁sniffing	-7321
▁exercises	-7322
▁Wo	-7323
▁hatch	-7324
▁opinions	-7325
▁allergic	-7326
▁Ball	-7327
▁Fairy	-7328
▁dou	-7329
romise	-7330
▁acts	-7331
▁messes	-7332
▁hopeful	-7333
▁unpacking	-7334
▁habit	-7335
isions	-7336
aby	-7337
quet	-7338
▁Pup	-7339
▁pancake	-7340
▁Pingu	-7341
▁talks	-7342
ulp	-7343
▁deed	-7344
▁Am	-7345
▁grandson	-7346
▁fluttered	-7347
uess	-7348
▁coup	-7349
▁echo	-7350
▁ger	-7351
▁quieter	-7352
▁overhead	-7353
▁gaz	-7354
▁drawers	-7355
▁purpose	-7356
▁Hold	-7357
▁buses	-7358
▁forgets	-7359
▁disob	-7360
mies	-7361
▁exch	-7362
▁beginning	-7363
▁bou	-7364
▁bouquet	-7365
osen	-7366
▁chosen	-7367
▁guarding	-7368
▁magically	-7369
▁correctly	-7370
▁sails	-7371
▁exhausted	-7372
▁passengers	-7373
otch	-7374
▁chocolates	-7375
▁Sophia	-7376
▁turtles	-7377
▁flashing	-7378
▁wraps	-7379
▁Oh	-7380
▁unicorns	-7381
▁Jay	-7382
▁playdate	-7383
ats	-7384
▁except	-7385
▁scattering	-7386
hile	-7387
▁squeezing	-7388
▁coach	-7389
▁leaking	-7390
▁Sundays	-7391
▁swirl	-7392
▁Ostrich	-7393
▁visitors	-7394
▁traveling	-7395
▁bru	-7396
▁Turt	-7397
▁decisions	-7398
▁rats	-7399
▁dod	-7400
Anytime	-7401
▁Robbie	-7402
▁corners	-7403
▁braver	-7404
▁growls	-7405
▁source	-7406
▁express	-7407
▁born	-7408
▁instin	-7409
izzie	-7410
▁honesty	-7411
▁Cow	-7412
▁breaths	-7413
All	-7414
▁announced	-7415
▁Sl	-7416
▁Bark	-7417
▁unwra	-7418
▁manager	-7419
Take	-7420
▁gest	-7421
uppy	-7422
▁darling	-7423
sol	-7424
▁Take	-7425
?'	-7426
▁Pam	-7427
Tr	-7428
▁Another	-7429
▁Curious	-7430
▁cons	-7431
▁playhouse	-7432
▁inchworm	-7433
▁Bloom	-7434
▁hangers	-7435
▁bicycles	-7436
▁scooters	-7437
▁salon	-7438
▁freezing	-7439
▁Lizzie	-7440
▁storms	-7441
▁returning	-7442
▁particular	-7443
▁cig	-7444
whe	-7445
▁stroked	-7446
ighing	-7447
▁stored	-7448
▁drivers	-7449
▁visitor	-7450
bird	-7451
▁Gold	-7452
▁seller	-7453
▁singers	-7454
▁chilly	-7455
▁rewards	-7456
▁force	-7457
▁calmly	-7458
▁hops	-7459
▁collap	-7460
▁sparks	-7461
▁grassy	-7462
▁cigaret	-7463
▁flip	-7464
▁instincts	-7465
▁flooded	-7466
▁shave	-7467
▁bandages	-7468
adabra	-7469
▁couple	-7470
▁healing	-7471
▁shady	-7472
▁blushed	-7473
▁months	-7474
▁shops	-7475
prints	-7476
▁Els	-7477
lee	-7478
▁rowed	-7479
▁closing	-7480
▁heaven	-7481
▁June	-7482
▁battle	-7483
cadabra	-7484
▁sweaty	-7485
▁thanking	-7486
ibit	-7487
▁Robo	-7488
▁spare	-7489
▁Rich	-7490
▁coolest	-7491
▁backward	-7492
the	-7493
▁Ouch	-7494
▁pantry	-7495
Bless	-7496
▁teles	-7497
▁gobbled	-7498
▁munching	-7499
▁Snowman	-7500
▁robber	-7501
▁dripping	-7502
▁mate	-7503
▁touches	-7504
▁container	-7505
▁yelped	-7506
▁Robert	-7507
▁Stella	-7508
▁wakes	-7509
▁Rollie	-7510
▁whoever	-7511
▁sometime	-7512
ertain	-7513
▁Only	-7514
▁untangled	-7515
lied	-7516
▁Bones	-7517
stand	-7518
▁Se	-7519
▁Nick	-7520
▁bells	-7521
▁neare	-7522
▁Ot	-7523
▁peeled	-7524
▁telescope	-7525
▁hoops	-7526
▁accomplished	-7527
▁hour	-7528
▁upside	-7529
icate	-7530
▁daring	-7531
alph	-7532
▁sped	-7533
▁pandas	-7534
▁nightmares	-7535
Bl	-7536
▁friendships	-7537
Bobo	-7538
▁seals	-7539
stalk	-7540
▁potty	-7541
▁chopped	-7542
▁exhibit	-7543
cat	-7544
▁Gerry	-7545
▁active	-7546
▁respected	-7547
▁zipping	-7548
▁Trust	-7549
▁seasons	-7550
Jump	-7551
▁spins	-7552
▁gazing	-7553
▁respond	-7554
Lila	-7555
▁gesture	-7556
▁Lau	-7557
▁Min	-7558
bel	-7559
Get	-7560
▁Jump	-7561
▁prove	-7562
▁positive	-7563
Boys	-7564
▁Piggy	-7565
▁goo	-7566
▁Woof	-7567
▁crystals	-7568
▁squealed	-7569
over	-7570
▁Raven	-7571
▁Well	-7572
▁Ralph	-7573
▁traps	-7574
cky	-7575
vered	-7576
▁germs	-7577
▁shorter	-7578
Put	-7579
iving	-7580
▁actor	-7581
▁dump	-7582
▁experiences	-7583
▁runner	-7584
▁offering	-7585
▁target	-7586
▁beanstalk	-7587
acle	-7588
▁stores	-7589
First	-7590
▁Missy	-7591
▁Strip	-7592
▁respon	-7593
▁occas	-7594
▁queens	-7595
▁response	-7596
▁footprints	-7597
▁belts	-7598
▁Abbie	-7599
▁untangle	-7600
ongratulations	-7601
▁Maya	-7602
▁disappoint	-7603
▁tapping	-7604
retch	-7605
▁Doctor	-7606
▁somebody	-7607
▁poses	-7608
▁reminds	-7609
▁checking	-7610
ammy	-7611
Buddy	-7612
▁Piggie	-7613
▁Turtle	-7614
lers	-7615
▁Izzy	-7616
▁scurry	-7617
▁swallow	-7618
▁dip	-7619
▁Gary	-7620
▁whispers	-7621
▁cheaper	-7622
▁tentacles	-7623
Pl	-7624
▁shovels	-7625
▁horiz	-7626
▁single	-7627
▁student	-7628
ilted	-7629
▁statues	-7630
mag	-7631
In	-7632
▁pills	-7633
▁Lia	-7634
▁diamonds	-7635
endy	-7636
▁mesmer	-7637
▁classmates	-7638
tock	-7639
▁horizon	-7640
▁beating	-7641
▁changes	-7642
▁Tig	-7643
▁nuzz	-7644
▁achieved	-7645
▁Satur	-7646
▁moat	-7647
aa	-7648
ilities	-7649
▁encount	-7650
▁Ry	-7651
▁Isn	-7652
▁repairman	-7653
▁slips	-7654
▁believing	-7655
lt	-7656
ingo	-7657
▁nurses	-7658
▁invitations	-7659
▁Moon	-7660
▁forts	-7661
Guess	-7662
Grandpa	-7663
sitter	-7664
▁Chris	-7665
▁Laura	-7666
▁tearing	-7667
aren	-7668
Mine	-7669
▁scri	-7670
steps	-7671
rigued	-7672
cessary	-7673
▁cleared	-7674
Which	-7675
▁lifts	-7676
▁journeys	-7677
▁stacking	-7678
ha	-7679
▁longest	-7680
▁inspired	-7681
▁rely	-7682
▁Shelly	-7683
▁hunting	-7684
che	-7685
▁stands	-7686
▁wasting	-7687
▁suits	-7688
▁footsteps	-7689
▁increasing	-7690
▁babysitter	-7691
upt	-7692
▁accomplishment	-7693
▁taped	-7694
▁Toot	-7695
▁Sleep	-7696
▁spills	-7697
▁Stripey	-7698
▁swo	-7699
▁teams	-7700
▁weighs	-7701
▁swollen	-7702
▁spilling	-7703
▁dollar	-7704
▁weaker	-7705
▁coughing	-7706
▁inter	-7707
Wake	-7708
orse	-7709
rigg	-7710
Every	-7711
oard	-7712
iggles	-7713
▁freedom	-7714
▁everybody	-7715
Beep	-7716
▁slithered	-7717
▁sou	-7718
▁appreciation	-7719
iversity	-7720
▁Oak	-7721
▁address	-7722
jo	-7723
▁aboard	-7724
▁De	-7725
artha	-7726
ighting	-7727
▁suggestion	-7728
rum	-7729
▁hoo	-7730
idence	-7731
▁edges	-7732
▁stomp	-7733
▁obst	-7734
▁arr	-7735
Moo	-7736
iciest	-7737
▁minds	-7738
▁checkout	-7739
▁Dove	-7740
▁joining	-7741
Hurry	-7742
▁auntie	-7743
▁popsicle	-7744
▁exercising	-7745
▁Ryan	-7746
▁crowns	-7747
▁Claw	-7748
▁Lenny	-7749
▁whipped	-7750
▁snowflakes	-7751
▁member	-7752
▁icing	-7753
▁bothered	-7754
▁Wise	-7755
ippers	-7756
▁squeak	-7757
▁Cro	-7758
▁Sim	-7759
▁punishment	-7760
▁presses	-7761
iti	-7762
▁Des	-7763
▁Spirit	-7764
▁curiously	-7765
ael	-7766
Nice	-7767
▁rin	-7768
▁kayaking	-7769
▁Win	-7770
▁wrigg	-7771
▁Martha	-7772
?!"	-7773
bee	-7774
▁buckled	-7775
▁landing	-7776
▁spat	-7777
▁communicate	-7778
▁prizes	-7779
under	-7780
▁failed	-7781
▁Mabel	-7782
▁skate	-7783
▁Emmy	-7784
▁flick	-7785
iter	-7786
▁Prince	-7787
▁compliment	-7788
▁lace	-7789
▁tant	-7790
▁sill	-7791
Eww	-7792
retty	-7793
▁grumbled	-7794
wise	-7795
guard	-7796
arable	-7797
▁novels	-7798
▁lava	-7799
▁disobey	-7800
▁tours	-7801
dding	-7802
▁tantrum	-7803
▁answering	-7804
orking	-7805
▁engines	-7806
▁connected	-7807
hi	-7808
▁unz	-7809
▁topp	-7810
▁Ron	-7811
▁erase	-7812
▁pinching	-7813
▁tubes	-7814
▁stinky	-7815
▁Although	-7816
lo	-7817
uacky	-7818
▁stepping	-7819
▁switched	-7820
▁double	-7821
ugging	-7822
▁petting	-7823
▁ank	-7824
▁mooed	-7825
Open	-7826
▁ass	-7827
▁yum	-7828
▁Time	-7829
▁honking	-7830
▁elect	-7831
▁repeating	-7832
▁springing	-7833
▁examining	-7834
▁donkey	-7835
▁adults	-7836
ichael	-7837
▁camel	-7838
▁fireflies	-7839
▁nibbled	-7840
▁fights	-7841
▁consider	-7842
'."	-7843
▁orders	-7844
▁sniffs	-7845
▁relaxing	-7846
▁yawning	-7847
val	-7848
▁clue	-7849
▁Beaky	-7850
Someone	-7851
▁stroll	-7852
rew	-7853
otion	-7854
▁cheat	-7855
▁certain	-7856
▁listener	-7857
▁Saturday	-7858
▁supplied	-7859
col	-7860
opes	-7861
▁Yet	-7862
▁shorts	-7863
Bang	-7864
▁Tia	-7865
▁Stretch	-7866
▁costs	-7867
▁birdies	-7868
ently	-7869
▁insep	-7870
▁natur	-7871
aptain	-7872
▁lies	-7873
▁type	-7874
▁Michael	-7875
▁Cle	-7876
▁signing	-7877
▁inseparable	-7878
Like	-7879
▁whispering	-7880
▁tutu	-7881
▁Simon	-7882
▁clearly	-7883
▁enthusi	-7884
▁springtime	-7885
▁grat	-7886
▁roars	-7887
▁pours	-7888
▁doorstep	-7889
▁borrowing	-7890
▁enthusiasm	-7891
▁uniforms	-7892
▁Holly	-7893
▁gratitude	-7894
str	-7895
▁squir	-7896
▁squaw	-7897
site	-7898
▁pipes	-7899
▁minded	-7900
▁sipped	-7901
▁collapsed	-7902
isc	-7903
▁shinier	-7904
▁coop	-7905
▁clip	-7906
freeze	-7907
▁clicked	-7908
▁nervously	-7909
▁prayers	-7910
▁bits	-7911
scotch	-7912
▁lifeguard	-7913
▁helicopters	-7914
Does	-7915
ien	-7916
rench	-7917
▁Honey	-7918
ortun	-7919
▁choosing	-7920
▁bud	-7921
▁opportun	-7922
▁baskets	-7923
▁earned	-7924
▁Gus	-7925
▁messed	-7926
▁Titi	-7927
Congratulations	-7928
▁lunchtime	-7929
▁stroke	-7930
▁ankle	-7931
water	-7932
▁Barky	-7933
▁bride	-7934
▁results	-7935
▁Super	-7936
▁firmly	-7937
▁thunderstorm	-7938
father	-7939
▁echoed	-7940
▁cherish	-7941
Em	-7942
▁glee	-7943
▁whales	-7944
Free	-7945
▁Pen	-7946
▁Janie	-7947
▁pepperoni	-7948
▁within	-7949
▁transformed	-7950
▁cal	-7951
▁giggles	-7952
▁wolves	-7953
▁supporting	-7954
immy	-7955
▁Ana	-7956
▁nodding	-7957
Ribbit	-7958
cri	-7959
▁Man	-7960
▁Mic	-7961
▁twists	-7962
▁wealth	-7963
Abra	-7964
▁foggy	-7965
ole	-7966
▁elf	-7967
▁noticing	-7968
▁Make	-7969
▁mood	-7970
▁confidence	-7971
▁kneeling	-7972
while	-7973
▁thicker	-7974
▁electric	-7975
llas	-7976
▁yumm	-7977
▁cells	-7978
▁napped	-7979
▁elbow	-7980
▁flowing	-7981
▁unst	-7982
▁Black	-7983
aty	-7984
▁Stri	-7985
▁mommies	-7986
Tw	-7987
▁flips	-7988
▁tasting	-7989
▁foxes	-7990
▁driveway	-7991
▁umbrellas	-7992
▁Wolf	-7993
▁hopscotch	-7994
▁Ang	-7995
Sarah	-7996
▁miles	-7997
▁benches	-7998
▁Captain	-7999
▁Outside	-8000
aint	-8001
▁sandy	-8002
▁providing	-8003
oey	-8004
order	-8005
▁Sadie	-8006
▁microw	-8007
▁cottage	-8008
▁insisting	-8009
▁discussing	-8010
▁microwave	-8011
▁Roo	-8012
arrow	-8013
▁wider	-8014
▁congratul	-8015
▁Wendy	-8016
bu	-8017
rob	-8018
▁scent	-8019
▁magnif	-8020
▁strum	-8021
▁trusting	-8022
▁Mean	-8023
▁reappeared	-8024
▁preschool	-8025
▁wrecked	-8026
▁intrigued	-8027
undred	-8028
▁campsite	-8029
▁juiciest	-8030
▁Despite	-8031
▁Goldie	-8032
▁chopping	-8033
Sn	-8034
▁sirens	-8035
▁goats	-8036
▁momma	-8037
▁tests	-8038
▁pounced	-8039
▁section	-8040
Abracadabra	-8041
Hmm	-8042
▁Marie	-8043
▁Tess	-8044
▁curre	-8045
▁torto	-8046
▁toothbrush	-8047
awn	-8048
erk	-8049
▁Jackie	-8050
▁temptation	-8051
oga	-8052
▁tortoise	-8053
aker	-8054
jack	-8055
▁Shark	-8056
▁emerged	-8057
▁lunchbox	-8058
▁Light	-8059
▁Puppy	-8060
▁wiggling	-8061
▁sculp	-8062
▁sculpture	-8063
▁scurrying	-8064
ounce	-8065
▁tidying	-8066
On	-8067
vin	-8068
▁Fighting	-8069
uction	-8070
▁Whoever	-8071
▁gummy	-8072
▁observing	-8073
▁Abi	-8074
▁Jolly	-8075
uses	-8076
▁bolt	-8077
▁robbers	-8078
▁massages	-8079
iley	-8080
▁showers	-8081
book	-8082
▁frowns	-8083
niversity	-8084
▁Meanwhile	-8085
▁backpacks	-8086
acock	-8087
▁Sweet	-8088
▁customers	-8089
▁sneezes	-8090
▁shortcut	-8091
▁applauding	-8092
▁lull	-8093
▁toppings	-8094
ails	-8095
▁marking	-8096
▁Davey	-8097
▁cheated	-8098
▁headache	-8099
▁newspapers	-8100
▁Bruce	-8101
▁matey	-8102
▁natural	-8103
▁juggling	-8104
onna	-8105
▁annoyed	-8106
▁beetles	-8107
▁nearest	-8108
▁comforting	-8109
▁bellies	-8110
▁hundred	-8111
Fin	-8112
▁drying	-8113
▁rows	-8114
magine	-8115
▁crafts	-8116
▁exchange	-8117
▁react	-8118
▁Amel	-8119
▁repairing	-8120
▁Jacky	-8121
▁locks	-8122
▁freely	-8123
▁peacock	-8124
▁scares	-8125
▁demanding	-8126
urrender	-8127
Doggy	-8128
▁backs	-8129
▁approach	-8130
Leave	-8131
▁travels	-8132
▁scrub	-8133
▁smoothly	-8134
▁countries	-8135
▁envelopes	-8136
flow	-8137
▁Show	-8138
▁lowered	-8139
▁Momma	-8140
▁twinkled	-8141
▁Since	-8142
da	-8143
▁swat	-8144
▁hooks	-8145
▁lumberjack	-8146
▁todd	-8147
▁slapping	-8148
▁tickling	-8149
▁cracks	-8150
▁raising	-8151
▁Te	-8152
▁loses	-8153
▁efforts	-8154
▁caterpillars	-8155
▁overflow	-8156
▁moderation	-8157
▁models	-8158
Pe	-8159
▁Chess	-8160
▁aim	-8161
▁whimp	-8162
▁current	-8163
▁drift	-8164
▁conc	-8165
▁prank	-8166
▁coloured	-8167
▁joyful	-8168
▁angrier	-8169
▁automobiles	-8170
▁clerk	-8171
▁cigarette	-8172
▁Judy	-8173
▁disc	-8174
▁stur	-8175
▁litter	-8176
▁scratchy	-8177
So	-8178
▁hood	-8179
▁cooled	-8180
▁weighing	-8181
▁completing	-8182
▁snowy	-8183
▁inches	-8184
iona	-8185
▁whined	-8186
▁wrench	-8187
▁Li	-8188
pit	-8189
▁Mother	-8190
Try	-8191
▁Chewy	-8192
▁Ali	-8193
Alright	-8194
▁unstuck	-8195
antha	-8196
ethos	-8197
▁stethos	-8198
iscuit	-8199
▁Todd	-8200
▁Dra	-8201
▁smartest	-8202
▁Jojo	-8203
▁bushy	-8204
▁Shadow	-8205
▁plucked	-8206
▁trusty	-8207
▁sens	-8208
▁antlers	-8209
▁attitude	-8210
▁generosity	-8211
▁Bally	-8212
▁shrank	-8213
▁Maddie	-8214
▁congratulated	-8215
▁fills	-8216
immering	-8217
▁Fiona	-8218
▁wounds	-8219
▁squeaked	-8220
▁spits	-8221
▁stuffing	-8222
▁neighbours	-8223
▁lullaby	-8224
piece	-8225
▁youn	-8226
▁experien	-8227
beh	-8228
▁Samantha	-8229
▁youngest	-8230
des	-8231
▁darl	-8232
▁darlings	-8233
ris	-8234
Blue	-8235
zoom	-8236
Sharing	-8237
Big	-8238
iky	-8239
▁form	-8240
urity	-8241
▁sets	-8242
onut	-8243
endant	-8244
▁files	-8245
beep	-8246
▁hiss	-8247
▁creams	-8248
▁cuddles	-8249
▁scoops	-8250
▁Tooth	-8251
▁facing	-8252
▁mesmerized	-8253
▁stethoscope	-8254
▁cutter	-8255
▁pounds	-8256
▁sweeter	-8257
asty	-8258
▁Bugs	-8259
▁Mina	-8260
▁Ar	-8261
▁Navy	-8262
▁coconut	-8263
▁understands	-8264
▁Raz	-8265
▁otters	-8266
▁sicker	-8267
▁grandfather	-8268
oor	-8269
▁grassho	-8270
▁Playing	-8271
▁nuzzled	-8272
▁sweaters	-8273
ntil	-8274
▁cares	-8275
▁Okay	-8276
▁Wiggles	-8277
▁wrapper	-8278
▁slee	-8279
▁teachers	-8280
▁tripping	-8281
▁Angel	-8282
▁popping	-8283
found	-8284
boards	-8285
▁rebu	-8286
▁Ricky	-8287
▁chatted	-8288
▁outfits	-8289
▁Mint	-8290
▁Everybody	-8291
▁Roger	-8292
▁paddling	-8293
ita	-8294
▁Mixy	-8295
▁security	-8296
cup	-8297
seed	-8298
▁pleaded	-8299
▁faded	-8300
▁alley	-8301
▁Ph	-8302
▁plugged	-8303
cal	-8304
▁activity	-8305
▁banged	-8306
▁condition	-8307
▁realizing	-8308
▁rays	-8309
▁warri	-8310
▁forests	-8311
▁birdseed	-8312
perate	-8313
▁Back	-8314
▁scrape	-8315
▁tidied	-8316
▁Bel	-8317
▁swaying	-8318
▁Minnie	-8319
Whiskers	-8320
▁lookout	-8321
▁homeless	-8322
▁plug	-8323
▁considerate	-8324
▁crickets	-8325
▁sturdy	-8326
yl	-8327
ilda	-8328
▁Barry	-8329
▁undone	-8330
inema	-8331
▁limp	-8332
▁pickles	-8333
▁deserved	-8334
▁throughout	-8335
▁unable	-8336
▁trading	-8337
entr	-8338
▁Bra	-8339
▁ill	-8340
ening	-8341
uffin	-8342
▁winners	-8343
▁tastiest	-8344
▁groom	-8345
▁wiser	-8346
▁cinema	-8347
▁grasshopper	-8348
▁puzzled	-8349
▁smashed	-8350
▁sprinkle	-8351
▁terrified	-8352
etchup	-8353
▁court	-8354
▁scamp	-8355
▁gardens	-8356
Mag	-8357
▁sooner	-8358
▁Thunder	-8359
▁despite	-8360
of	-8361
▁dial	-8362
▁concentr	-8363
▁CD	-8364
▁sly	-8365
▁spies	-8366
▁fashionable	-8367
▁hudd	-8368
▁gonna	-8369
▁types	-8370
▁Start	-8371
▁Amelia	-8372
▁cheating	-8373
war	-8374
▁Tiger	-8375
bank	-8376
▁Herb	-8377
▁killed	-8378
▁minding	-8379
lish	-8380
▁cages	-8381
Soon	-8382
▁Toys	-8383
ca	-8384
uel	-8385
▁groan	-8386
▁necks	-8387
▁Pretty	-8388
▁anyways	-8389
▁munched	-8390
▁Bang	-8391
▁sacks	-8392
▁spelling	-8393
off	-8394
mbur	-8395
▁Otto	-8396
▁Judge	-8397
▁swayed	-8398
▁disappearing	-8399
▁antic	-8400
▁burns	-8401
▁styles	-8402
▁stamped	-8403
▁messages	-8404
▁Meg	-8405
▁hambur	-8406
▁duckie	-8407
▁Micro	-8408
▁Blinky	-8409
▁crocodiles	-8410
▁actors	-8411
▁miller	-8412
▁ketchup	-8413
▁astronauts	-8414
▁structures	-8415
▁kinder	-8416
emies	-8417
▁cursed	-8418
▁enemies	-8419
Beware	-8420
▁charm	-8421
▁travelled	-8422
▁encountered	-8423
▁guards	-8424
▁recommendation	-8425
▁expert	-8426
▁oppos	-8427
▁masterpiece	-8428
▁differently	-8429
rey	-8430
▁Bess	-8431
▁cowboys	-8432
▁Moley	-8433
▁tumbled	-8434
▁dock	-8435
▁Muffin	-8436
▁welcoming	-8437
▁crowded	-8438
▁stretches	-8439
▁experienced	-8440
▁Ms	-8441
▁carn	-8442
▁blades	-8443
▁detect	-8444
Mimi	-8445
▁Still	-8446
▁toward	-8447
▁computers	-8448
▁electricity	-8449
▁Dani	-8450
▁warmly	-8451
▁stubbed	-8452
▁sunbur	-8453
▁ability	-8454
▁hamm	-8455
▁newfound	-8456
▁ting	-8457
▁opposite	-8458
▁shooed	-8459
▁spoiling	-8460
▁waitress	-8461
▁tiptoes	-8462
Daisy	-8463
▁recorder	-8464
▁instrument	-8465
onnie	-8466
▁dolly	-8467
▁expecting	-8468
▁Bad	-8469
ellow	-8470
▁rowing	-8471
icking	-8472
▁hind	-8473
Bunny	-8474
▁Yoga	-8475
▁challenged	-8476
▁pose	-8477
▁decl	-8478
▁suck	-8479
Friend	-8480
▁cheers	-8481
five	-8482
▁Ruth	-8483
▁Wait	-8484
▁curl	-8485
▁endings	-8486
▁roo	-8487
▁pinec	-8488
▁throne	-8489
mbers	-8490
▁members	-8491
▁tanks	-8492
▁Helping	-8493
fus	-8494
▁toddler	-8495
venir	-8496
▁dodged	-8497
▁carnival	-8498
▁conqu	-8499
▁souvenir	-8500
▁spy	-8501
▁sinking	-8502
▁Say	-8503
▁becomes	-8504
▁nightstand	-8505
▁Tri	-8506
▁soapy	-8507
bl	-8508
inite	-8509
▁Biggy	-8510
▁nightlight	-8511
Danger	-8512
ieve	-8513
rons	-8514
anish	-8515
▁unlo	-8516
▁obeyed	-8517
▁Ice	-8518
▁Dina	-8519
▁strips	-8520
▁spears	-8521
For	-8522
▁pecking	-8523
▁unwrapped	-8524
omb	-8525
▁spiky	-8526
▁Rainbow	-8527
▁Mindy	-8528
▁aprons	-8529
▁huddled	-8530
▁duckies	-8531
▁whistles	-8532
▁regularly	-8533
scar	-8534
isbee	-8535
▁Loop	-8536
initely	-8537
▁exams	-8538
▁brains	-8539
His	-8540
▁Stan	-8541
▁joins	-8542
▁mashed	-8543
etah	-8544
▁Ne	-8545
▁Taking	-8546
▁Does	-8547
▁arre	-8548
▁retrieved	-8549
urn	-8550
▁posters	-8551
▁enjoyable	-8552
▁Rel	-8553
verse	-8554
▁yummiest	-8555
▁caf	-8556
ended	-8557
▁Ruff	-8558
▁cheetah	-8559
▁Sofia	-8560
▁Anytime	-8561
gger	-8562
anda	-8563
▁compromise	-8564
years	-8565
▁caps	-8566
Too	-8567
▁Eliz	-8568
▁Bumpy	-8569
▁nights	-8570
uries	-8571
▁doorway	-8572
▁riverbank	-8573
▁mugs	-8574
Brrr	-8575
▁canv	-8576
▁coughed	-8577
▁rebuild	-8578
Once	-8579
▁trot	-8580
▁webs	-8581
▁comets	-8582
▁heavily	-8583
organ	-8584
▁trigger	-8585
▁annoying	-8586
▁Maddy	-8587
▁carve	-8588
▁performers	-8589
▁boil	-8590
▁stall	-8591
▁melody	-8592
▁sternly	-8593
acy	-8594
▁tilted	-8595
otte	-8596
▁rumbling	-8597
▁Oscar	-8598
reverse	-8599
▁roller	-8600
▁surfed	-8601
oosh	-8602
acing	-8603
▁knit	-8604
▁Rusty	-8605
▁formed	-8606
▁simply	-8607
▁beaks	-8608
▁floppy	-8609
▁quacking	-8610
▁sneaking	-8611
jest	-8612
Magic	-8613
▁Jelly	-8614
welcome	-8615
▁gap	-8616
colored	-8617
▁service	-8618
▁weights	-8619
ocular	-8620
▁mold	-8621
▁explains	-8622
▁binocular	-8623
▁hunger	-8624
▁visits	-8625
▁reappear	-8626
ili	-8627
ecca	-8628
▁Ria	-8629
▁canvas	-8630
▁dev	-8631
▁Jonny	-8632
▁Maisy	-8633
▁opportunity	-8634
▁Eva	-8635
arted	-8636
udged	-8637
▁funn	-8638
▁Rufus	-8639
▁descri	-8640
▁squish	-8641
▁scenery	-8642
bbly	-8643
▁god	-8644
▁Nurse	-8645
▁Razor	-8646
▁builder	-8647
▁Gl	-8648
▁quarre	-8649
▁explaining	-8650
Arrr	-8651
abby	-8652
▁Charlotte	-8653
▁differences	-8654
▁compete	-8655
▁troubles	-8656
▁gooey	-8657
▁commotion	-8658
▁Mole	-8659
▁scampered	-8660
▁discoveries	-8661
▁Oliv	-8662
▁mailing	-8663
▁sickness	-8664
rily	-8665
▁Megan	-8666
▁harmful	-8667
good	-8668
▁rails	-8669
▁Frankie	-8670
▁brightest	-8671
▁definitely	-8672
▁movements	-8673
.'"	-8674
▁meows	-8675
▁scaredy	-8676
▁Must	-8677
▁Flick	-8678
▁fishes	-8679
▁passes	-8680
▁Monster	-8681
▁steering	-8682
▁Rino	-8683
flies	-8684
▁Patty	-8685
▁fanc	-8686
▁complimented	-8687
▁onward	-8688
▁loudest	-8689
▁arranged	-8690
▁flaps	-8691
▁Daniel	-8692
▁owning	-8693
ending	-8694
▁zooms	-8695
▁apologised	-8696
▁rewarding	-8697
▁booth	-8698
▁purrs	-8699
▁frisbee	-8700
▁Pig	-8701
▁faint	-8702
ative	-8703
▁warmed	-8704
▁crushed	-8705
▁expression	-8706
▁cops	-8707
▁lur	-8708
shadow	-8709
▁occasion	-8710
▁Tuesdays	-8711
▁interest	-8712
▁Lightning	-8713
▁Share	-8714
▁Pop	-8715
▁runny	-8716
▁parted	-8717
BC	-8718
Car	-8719
▁skirts	-8720
▁binoculars	-8721
▁Off	-8722
▁bond	-8723
▁phones	-8724
▁juggle	-8725
▁Tre	-8726
▁riddle	-8727
▁desserts	-8728
▁ABC	-8729
▁Cari	-8730
▁carries	-8731
▁humming	-8732
▁pressing	-8733
▁Ready	-8734
▁Olivia	-8735
▁responded	-8736
just	-8737
what	-8738
Being	-8739
ering	-8740
▁final	-8741
▁obediently	-8742
elling	-8743
▁alligators	-8744
▁nasty	-8745
▁badger	-8746
▁meaning	-8747
rough	-8748
▁goodness	-8749
▁swap	-8750
▁ticking	-8751
omp	-8752
iments	-8753
▁Jumpy	-8754
▁customer	-8755
▁Ribbit	-8756
inny	-8757
▁Pine	-8758
hole	-8759
▁Luc	-8760
▁reaction	-8761
▁sever	-8762
▁Fel	-8763
▁flashed	-8764
asers	-8765
▁examp	-8766
▁boiling	-8767
▁several	-8768
▁bomb	-8769
▁tops	-8770
▁constr	-8771
▁Mustache	-8772
how	-8773
Shrink	-8774
▁Truck	-8775
▁connect	-8776
▁bounces	-8777
▁Louise	-8778
▁wrink	-8779
▁crawls	-8780
▁gasp	-8781
Baa	-8782
uum	-8783
▁snaps	-8784
▁affect	-8785
▁improving	-8786
▁vacuum	-8787
▁smoothie	-8788
▁Nancy	-8789
▁aid	-8790
▁hoot	-8791
▁pouch	-8792
working	-8793
▁lizards	-8794
▁ordering	-8795
▁Day	-8796
▁More	-8797
▁Rita	-8798
▁cafe	-8799
▁dragonfly	-8800
▁scolds	-8801
▁tickles	-8802
▁soot	-8803
▁crisp	-8804
▁Flappy	-8805
Emma	-8806
▁Furry	-8807
ana	-8808
▁anticip	-8809
sse	-8810
▁Bri	-8811
▁Speed	-8812
▁whether	-8813
▁presented	-8814
pect	-8815
ashes	-8816
antern	-8817
▁leap	-8818
▁devast	-8819
▁rightful	-8820
▁attem	-8821
▁resol	-8822
▁spaces	-8823
▁caw	-8824
ordinary	-8825
▁drip	-8826
▁Which	-8827
▁rooster	-8828
evin	-8829
▁appl	-8830
▁bumping	-8831
▁erasers	-8832
vy	-8833
▁Fly	-8834
▁cuc	-8835
▁foam	-8836
▁mysteries	-8837
aroni	-8838
▁example	-8839
▁pilots	-8840
▁devastated	-8841
▁Jax	-8842
▁Magic	-8843
ula	-8844
Looks	-8845
▁Elle	-8846
▁chalks	-8847
▁jumper	-8848
▁Flo	-8849
▁Hug	-8850
▁Candy	-8851
ssss	-8852
▁stains	-8853
ophone	-8854
▁erupt	-8855
izzes	-8856
▁sprays	-8857
▁Elsa	-8858
▁ironing	-8859
▁shallow	-8860
▁challenges	-8861
▁bathed	-8862
byes	-8863
▁Phil	-8864
▁pollen	-8865
ibi	-8866
▁Birds	-8867
▁macaroni	-8868
▁grump	-8869
▁leapt	-8870
▁groaned	-8871
▁kangaroos	-8872
▁magnifying	-8873
emon	-8874
▁unco	-8875
▁checks	-8876
▁embarrassing	-8877
▁goodbyes	-8878
▁broomstick	-8879
erris	-8880
▁mindful	-8881
▁imaginations	-8882
▁Bonnie	-8883
▁nibbling	-8884
Fire	-8885
sers	-8886
▁tips	-8887
▁Seeing	-8888
▁twenty	-8889
▁rumbled	-8890
cloth	-8891
▁Startled	-8892
▁chatting	-8893
zo	-8894
▁moons	-8895
▁flowed	-8896
▁dears	-8897
▁compared	-8898
▁Ty	-8899
▁outsm	-8900
althy	-8901
▁laces	-8902
▁quizzes	-8903
▁injuries	-8904
▁army	-8905
▁warrior	-8906
▁sax	-8907
inner	-8908
▁priv	-8909
▁posse	-8910
Friends	-8911
▁lurking	-8912
▁Yellow	-8913
▁compan	-8914
▁surely	-8915
▁charged	-8916
▁apology	-8917
▁pointer	-8918
▁stroller	-8919
▁protection	-8920
▁lapt	-8921
cutter	-8922
▁nearly	-8923
▁details	-8924
ivi	-8925
▁fans	-8926
▁bubbly	-8927
Phew	-8928
▁anticipation	-8929
▁declared	-8930
▁rods	-8931
▁Becky	-8932
',	-8933
▁adds	-8934
▁taco	-8935
▁although	-8936
▁Dragon	-8937
icious	-8938
▁Never	-8939
▁threads	-8940
its	-8941
▁tin	-8942
▁glows	-8943
▁hooves	-8944
▁medals	-8945
▁owns	-8946
▁forgives	-8947
▁musicians	-8948
▁admiration	-8949
▁possess	-8950
▁allowing	-8951
▁pinecone	-8952
rap	-8953
▁revealing	-8954
▁harvest	-8955
Find	-8956
ooking	-8957
▁newly	-8958
▁sandpit	-8959
▁woodcutter	-8960
ics	-8961
Trust	-8962
▁desks	-8963
▁raked	-8964
▁online	-8965
▁Bibi	-8966
▁shall	-8967
▁chains	-8968
▁obstacle	-8969
▁construction	-8970
ieves	-8971
uster	-8972
▁Dotty	-8973
▁adventurer	-8974
▁process	-8975
▁sniffled	-8976
Bear	-8977
▁farmers	-8978
ousel	-8979
▁Joan	-8980
▁laptop	-8981
▁whine	-8982
ooks	-8983
striches	-8984
giving	-8985
Ahoy	-8986
▁jing	-8987
▁Softy	-8988
▁Crocod	-8989
▁cousins	-8990
▁carousel	-8991
▁training	-8992
Luna	-8993
▁handy	-8994
▁dripped	-8995
▁extraordinary	-8996
issa	-8997
▁ding	-8998
▁fail	-8999
▁owls	-9000
▁aisles	-9001
yd	-9002
Isn	-9003
▁injured	-9004
▁includes	-9005
▁thieves	-9006
▁raincoats	-9007
▁Har	-9008
▁invites	-9009
illas	-9010
▁Any	-9011
keepers	-9012
▁cheerfully	-9013
▁writer	-9014
rope	-9015
▁reel	-9016
shop	-9017
▁chin	-9018
▁common	-9019
▁Puffy	-9020
▁faith	-9021
Chirp	-9022
▁Jason	-9023
▁Yawn	-9024
▁hardest	-9025
▁Jet	-9026
▁spelled	-9027
▁applause	-9028
▁disagreement	-9029
▁protector	-9030
Make	-9031
▁blond	-9032
▁chili	-9033
▁unfair	-9034
Everyone	-9035
▁bats	-9036
▁slithering	-9037
▁disagreeing	-9038
▁Pink	-9039
▁soda	-9040
▁thumbs	-9041
▁Eric	-9042
ality	-9043
▁nets	-9044
▁poop	-9045
bbles	-9046
inger	-9047
Imagine	-9048
Ollie	-9049
▁companion	-9050
uickly	-9051
▁Fle	-9052
▁acrob	-9053
▁clubs	-9054
▁holidays	-9055
▁tightrope	-9056
owing	-9057
raged	-9058
Jane	-9059
▁Grand	-9060
▁admit	-9061
▁cleans	-9062
▁patches	-9063
▁signal	-9064
▁moonlight	-9065
▁saxophone	-9066
Ball	-9067
inted	-9068
▁bait	-9069
▁textures	-9070
▁dia	-9071
illiam	-9072
utions	-9073
▁Robin	-9074
▁birthdays	-9075
▁painful	-9076
▁striking	-9077
mo	-9078
▁App	-9079
▁Lina	-9080
▁solutions	-9081
itcher	-9082
▁Bingo	-9083
▁retrieve	-9084
▁underwater	-9085
▁attempt	-9086
▁bruises	-9087
Molly	-9088
▁speaker	-9089
▁flyer	-9090
▁La	-9091
munk	-9092
dog	-9093
▁Bozo	-9094
▁rider	-9095
▁Clucky	-9096
Only	-9097
▁Cook	-9098
▁Hello	-9099
▁doves	-9100
▁Mae	-9101
▁Sal	-9102
iolet	-9103
eal	-9104
▁stew	-9105
▁Smoke	-9106
▁Missile	-9107
▁chugged	-9108
▁heels	-9109
▁equally	-9110
▁Terry	-9111
▁shares	-9112
▁guitars	-9113
▁unlocking	-9114
▁odd	-9115
check	-9116
field	-9117
orth	-9118
▁opt	-9119
Never	-9120
▁Elsie	-9121
▁boards	-9122
▁workshop	-9123
pan	-9124
▁Buster	-9125
▁pitcher	-9126
▁panicking	-9127
▁zookeepers	-9128
cie	-9129
▁Bar	-9130
▁wig	-9131
▁unne	-9132
▁Achoo	-9133
▁sensation	-9134
pr	-9135
▁deck	-9136
Should	-9137
antastic	-9138
match	-9139
▁seriously	-9140
▁William	-9141
▁skinny	-9142
▁ABCs	-9143
▁sincere	-9144
▁accepting	-9145
▁mats	-9146
Che	-9147
▁date	-9148
isible	-9149
▁washes	-9150
manda	-9151
▁cance	-9152
▁Annabel	-9153
▁science	-9154
▁unnecessary	-9155
▁adop	-9156
ouraged	-9157
Hop	-9158
mill	-9159
▁Plus	-9160
▁invisible	-9161
shirt	-9162
▁events	-9163
▁trotted	-9164
▁realizes	-9165
▁Sil	-9166
isher	-9167
▁injury	-9168
▁Mine	-9169
▁tran	-9170
▁vibr	-9171
▁neighed	-9172
▁snapping	-9173
▁mayor	-9174
Playing	-9175
▁continuing	-9176
▁pads	-9177
▁awful	-9178
getic	-9179
▁deserves	-9180
▁storybook	-9181
uno	-9182
▁scram	-9183
▁Tomorrow	-9184
▁promising	-9185
▁Right	-9186
▁dusted	-9187
▁resolved	-9188
▁boarded	-9189
▁property	-9190
▁intelligence	-9191
▁towns	-9192
▁Amanda	-9193
▁combing	-9194
▁Tammy	-9195
▁chipmunk	-9196
▁knitting	-9197
sa	-9198
bun	-9199
eat	-9200
▁inform	-9201
▁gorillas	-9202
▁foreshadow	-9203
▁Thanksgiving	-9204
meow	-9205
ushes	-9206
▁lectures	-9207
sn	-9208
▁Hank	-9209
▁level	-9210
▁Eating	-9211
▁bowing	-9212
▁Wednesdays	-9213
idy	-9214
Grow	-9215
iri	-9216
asha	-9217
▁Too	-9218
▁rack	-9219
▁Clown	-9220
▁Life	-9221
mate	-9222
OO	-9223
gr	-9224
▁cosy	-9225
▁Spider	-9226
▁judged	-9227
▁frustration	-9228
rit	-9229
▁lil	-9230
▁lim	-9231
▁Pick	-9232
▁beaming	-9233
att	-9234
▁capture	-9235
▁scene	-9236
▁Gracie	-9237
▁fantastic	-9238
iant	-9239
▁trim	-9240
▁sleigh	-9241
horse	-9242
▁royal	-9243
▁ruled	-9244
Bella	-9245
▁Duke	-9246
▁successfully	-9247
,'	-9248
hand	-9249
▁based	-9250
made	-9251
▁Close	-9252
▁clothesline	-9253
▁Cloud	-9254
▁troll	-9255
▁unless	-9256
▁pudding	-9257
▁whimpered	-9258
Fro	-9259
gery	-9260
▁ostriches	-9261
▁travelling	-9262
ici	-9263
Even	-9264
▁roasted	-9265
▁Gilly	-9266
▁peep	-9267
▁prod	-9268
▁awoke	-9269
▁shots	-9270
▁separating	-9271
gain	-9272
▁winding	-9273
▁carefree	-9274
▁instantly	-9275
bec	-9276
▁Jean	-9277
▁papa	-9278
▁Brian	-9279
▁scrambled	-9280
ching	-9281
▁parades	-9282
▁stained	-9283
▁disappointment	-9284
▁knobs	-9285
▁vests	-9286
▁Bunbun	-9287
▁hissing	-9288
▁ris	-9289
▁sus	-9290
▁host	-9291
▁Janey	-9292
▁brakes	-9293
▁parking	-9294
▁lighting	-9295
emma	-9296
▁Joke	-9297
▁sunburn	-9298
▁bas	-9299
▁site	-9300
▁crispy	-9301
▁Afterward	-9302
▁marve	-9303
▁hamster	-9304
rand	-9305
▁Step	-9306
▁carts	-9307
▁finishes	-9308
awk	-9309
Tree	-9310
▁thump	-9311
▁surgery	-9312
▁Otherwise	-9313
▁Amber	-9314
▁introducing	-9315
sorry	-9316
ebecca	-9317
▁Moppy	-9318
▁Animal	-9319
▁boiled	-9320
▁Felix	-9321
▁doggie	-9322
▁necessary	-9323
Rain	-9324
izza	-9325
▁fade	-9326
▁ouch	-9327
▁Greeny	-9328
Sammy	-9329
▁Snake	-9330
▁woken	-9331
▁hippos	-9332
▁squeaky	-9333
▁servants	-9334
▁feathered	-9335
▁scribbled	-9336
vere	-9337
▁worst	-9338
▁barbec	-9339
po	-9340
elope	-9341
Butter	-9342
▁Hi	-9343
▁reversing	-9344
aids	-9345
athan	-9346
▁Cici	-9347
▁Tippy	-9348
▁Rebecca	-9349
▁bending	-9350
▁experiment	-9351
edic	-9352
▁sleeps	-9353
▁pedaling	-9354
Close	-9355
▁Twist	-9356
▁ashes	-9357
▁cords	-9358
▁lilies	-9359
▁angrily	-9360
▁Sasha	-9361
▁Ashley	-9362
▁sharpen	-9363
cr	-9364
▁Sir	-9365
▁blush	-9366
▁choke	-9367
▁narrow	-9368
▁discouraged	-9369
emy	-9370
▁fet	-9371
▁Cars	-9372
▁calf	-9373
phones	-9374
▁Gabby	-9375
▁supplying	-9376
▁Eliza	-9377
Aw	-9378
▁tents	-9379
bed	-9380
imber	-9381
▁bends	-9382
▁snowflake	-9383
that	-9384
ettle	-9385
▁Bert	-9386
▁Bruno	-9387
▁levers	-9388
▁enemy	-9389
▁portal	-9390
▁dirtier	-9391
▁Crocodile	-9392
▁sav	-9393
▁Tyler	-9394
comb	-9395
▁honeycomb	-9396
▁chill	-9397
▁caution	-9398
▁cracker	-9399
gar	-9400
▁pizzas	-9401
iraffe	-9402
▁assist	-9403
▁melts	-9404
▁oceans	-9405
▁ducklings	-9406
▁Tra	-9407
▁tippy	-9408
▁trusts	-9409
▁fif	-9410
▁experiments	-9411
▁Math	-9412
▁Sing	-9413
▁recipes	-9414
▁luckiest	-9415
▁carton	-9416
▁arrested	-9417
▁Shar	-9418
▁skateboard	-9419
iara	-9420
▁cuddling	-9421
ssy	-9422
▁waters	-9423
▁Spanish	-9424
▁disobeyed	-9425
orky	-9426
▁barbecue	-9427
▁quarrelling	-9428
▁gri	-9429
▁halfway	-9430
▁seeking	-9431
▁detective	-9432
▁mushy	-9433
▁snowing	-9434
▁conflicts	-9435
▁scientists	-9436
osure	-9437
▁hisses	-9438
▁pearls	-9439
▁keyhole	-9440
▁tablecloth	-9441
pop	-9442
▁speedy	-9443
smelling	-9444
▁misty	-9445
▁croaked	-9446
▁freeing	-9447
▁Crane	-9448
▁bless	-9449
▁sleeve	-9450
▁stitched	-9451
Ducky	-9452
▁bandaid	-9453
▁shaker	-9454
▁climber	-9455
▁Fort	-9456
▁Nora	-9457
▁snug	-9458
▁Berry	-9459
▁pistols	-9460
amil	-9461
▁lar	-9462
▁Flora	-9463
▁performer	-9464
Eat	-9465
▁Cally	-9466
▁scores	-9467
▁paramed	-9468
▁tempted	-9469
▁information	-9470
▁abilities	-9471
Br	-9472
▁baa	-9473
▁encl	-9474
friend	-9475
flowers	-9476
▁halves	-9477
▁transp	-9478
▁sleepover	-9479
▁invent	-9480
▁cartwhe	-9481
▁puppets	-9482
▁Gill	-9483
▁creep	-9484
▁flock	-9485
▁misbeh	-9486
▁heights	-9487
▁acrobats	-9488
Leo	-9489
▁adjust	-9490
▁swimsuits	-9491
▁disgu	-9492
lets	-9493
▁cubs	-9494
▁bluebird	-9495
▁enclosure	-9496
▁concentrate	-9497
clock	-9498
▁Dogs	-9499
▁Whale	-9500
▁seahorse	-9501
stop	-9502
▁gall	-9503
▁pruning	-9504
▁softened	-9505
▁glittering	-9506
▁Grump	-9507
▁postc	-9508
▁Penelope	-9509
Ellie	-9510
▁laws	-9511
▁unzipped	-9512
▁Hurry	-9513
▁rhino	-9514
▁loyalty	-9515
▁attaching	-9516
ths	-9517
▁Run	-9518
owers	-9519
▁grumble	-9520
▁Cott	-9521
▁chews	-9522
▁fluff	-9523
▁witches	-9524
whel	-9525
▁gates	-9526
▁snorted	-9527
▁lasers	-9528
▁addition	-9529
upted	-9530
▁waggy	-9531
amiliar	-9532
▁erupted	-9533
▁guarded	-9534
▁Fortunately	-9535
Red	-9536
reg	-9537
berry	-9538
▁Over	-9539
▁diaper	-9540
▁nicest	-9541
▁overwhel	-9542
▁energetic	-9543
▁unfamiliar	-9544
rick	-9545
▁intently	-9546
▁Microscope	-9547
▁Tessa	-9548
▁ballet	-9549
▁Fay	-9550
ircle	-9551
▁Bucky	-9552
▁beast	-9553
▁Clean	-9554
▁droop	-9555
▁hoses	-9556
▁biscuit	-9557
▁Helen	-9558
▁digs	-9559
▁poss	-9560
▁shyly	-9561
▁Puff	-9562
▁hula	-9563
▁maps	-9564
▁majest	-9565
▁robin	-9566
▁avoided	-9567
▁pendant	-9568
▁cherished	-9569
▁hesitation	-9570
Mark	-9571
▁Riri	-9572
ugar	-9573
▁Jenn	-9574
▁ribbit	-9575
▁shoots	-9576
▁particularly	-9577
Snow	-9578
▁cooed	-9579
▁winds	-9580
▁stacks	-9581
▁wrinkly	-9582
▁Mart	-9583
▁rips	-9584
▁restoring	-9585
▁overflowing	-9586
▁fixer	-9587
▁chattered	-9588
▁community	-9589
▁local	-9590
▁liking	-9591
atest	-9592
Want	-9593
iring	-9594
▁Peggy	-9595
▁speaks	-9596
▁spirits	-9597
▁zigzags	-9598
▁silverware	-9599
▁icky	-9600
Ice	-9601
▁Cream	-9602
▁rinse	-9603
▁tunes	-9604
Nothing	-9605
▁frames	-9606
▁Per	-9607
▁Giant	-9608
▁blamed	-9609
Honey	-9610
▁curse	-9611
▁Silver	-9612
istory	-9613
▁clips	-9614
▁cluck	-9615
▁embra	-9616
▁savor	-9617
▁pace	-9618
▁suns	-9619
▁cables	-9620
esses	-9621
▁Waff	-9622
▁niece	-9623
▁carved	-9624
▁kissing	-9625
▁stretchy	-9626
▁Ed	-9627
Chirpy	-9628
▁gasps	-9629
▁talons	-9630
▁passenger	-9631
▁sculptures	-9632
▁Bea	-9633
▁armor	-9634
▁Andrew	-9635
▁gardening	-9636
▁pokes	-9637
▁lasted	-9638
▁lump	-9639
▁zippers	-9640
▁Woolly	-9641
▁froggy	-9642
▁Sand	-9643
▁robe	-9644
this	-9645
Freeze	-9646
▁Reddy	-9647
▁Bobbie	-9648
▁resisting	-9649
▁hob	-9650
hings	-9651
▁Mila	-9652
▁Scr	-9653
▁Bald	-9654
▁racer	-9655
▁tagged	-9656
▁chatter	-9657
lderly	-9658
▁lever	-9659
usion	-9660
▁rinsed	-9661
▁Matilda	-9662
▁blonde	-9663
▁command	-9664
Remy	-9665
anced	-9666
▁Lung	-9667
▁bills	-9668
▁cloths	-9669
▁hideout	-9670
▁Mus	-9671
▁Chip	-9672
▁zips	-9673
▁horri	-9674
▁Stripes	-9675
▁goodies	-9676
▁lantern	-9677
▁sipping	-9678
▁somehow	-9679
▁guardian	-9680
▁ladybugs	-9681
▁behaviour	-9682
urple	-9683
▁Climb	-9684
▁saddle	-9685
▁banging	-9686
boos	-9687
▁Sale	-9688
▁chicks	-9689
▁squeezes	-9690
▁infection	-9691
▁Pol	-9692
asper	-9693
▁fooled	-9694
▁Giraffe	-9695
▁sweating	-9696
cies	-9697
▁susp	-9698
▁White	-9699
▁tiara	-9700
▁uncovered	-9701
ka	-9702
ulf	-9703
▁Old	-9704
▁Heli	-9705
▁invol	-9706
▁unzip	-9707
▁dialed	-9708
▁dustpan	-9709
▁Goodnight	-9710
▁emergencies	-9711
amma	-9712
ouched	-9713
▁mustard	-9714
▁shaving	-9715
creams	-9716
▁Yummy	-9717
▁jacks	-9718
▁alongside	-9719
Sun	-9720
ders	-9721
fived	-9722
▁chug	-9723
▁funniest	-9724
Mouse	-9725
▁Slinky	-9726
▁obstacles	-9727
▁Dis	-9728
▁Rosa	-9729
▁Eat	-9730
▁Tell	-9731
▁unwrap	-9732
▁explode	-9733
▁occasions	-9734
▁sizz	-9735
▁cornfield	-9736
▁razors	-9737
▁Melissa	-9738
sey	-9739
ruck	-9740
▁trunks	-9741
▁greatest	-9742
▁peels	-9743
▁fences	-9744
▁possib	-9745
Joe	-9746
▁Fix	-9747
▁len	-9748
▁launch	-9749
▁learner	-9750
▁disaster	-9751
asy	-9752
snap	-9753
▁purring	-9754
▁snoring	-9755
Rob	-9756
udge	-9757
▁poles	-9758
▁smoother	-9759
lor	-9760
Rock	-9761
Jimmy	-9762
▁Peace	-9763
▁tossing	-9764
orant	-9765
▁Mixie	-9766
▁copied	-9767
▁Buttercup	-9768
▁hardworking	-9769
Lost	-9770
paste	-9771
▁tale	-9772
▁kindest	-9773
▁Thankfully	-9774
net	-9775
ilot	-9776
pril	-9777
▁Boom	-9778
▁Find	-9779
▁Play	-9780
▁sleds	-9781
roccoli	-9782
▁whoosh	-9783
▁miracle	-9784
▁pricked	-9785
▁braid	-9786
▁access	-9787
▁stings	-9788
▁wriggled	-9789
▁Annabelle	-9790
Co	-9791
▁Con	-9792
▁displaying	-9793
▁Whe	-9794
▁disguise	-9795
▁Alligator	-9796
▁Rhin	-9797
▁festiv	-9798
▁warmest	-9799
▁delaying	-9800
Sweet	-9801
▁Riley	-9802
▁bound	-9803
pled	-9804
▁North	-9805
▁toothpaste	-9806
▁catcher	-9807
▁numbered	-9808
Ring	-9809
▁glimmering	-9810
▁wildflowers	-9811
▁rubbish	-9812
wing	-9813
▁exercised	-9814
ni	-9815
'?"	-9816
▁rent	-9817
▁ruff	-9818
▁palms	-9819
▁Reliable	-9820
oint	-9821
▁Syl	-9822
▁Paula	-9823
▁tugging	-9824
▁leans	-9825
▁blurry	-9826
▁motors	-9827
▁shields	-9828
▁meetings	-9829
Jill	-9830
▁bund	-9831
▁sucked	-9832
▁fanciest	-9833
ift	-9834
▁amused	-9835
▁earthquakes	-9836
rupt	-9837
▁Eve	-9838
▁champ	-9839
As	-9840
Fly	-9841
▁Rub	-9842
▁Flap	-9843
▁Inky	-9844
▁Orange	-9845
▁turkeys	-9846
▁admitted	-9847
▁Barn	-9848
▁grandk	-9849
▁vinegar	-9850
▁Boat	-9851
▁Bull	-9852
▁wicked	-9853
▁squirted	-9854
▁godmother	-9855
▁loos	-9856
rupted	-9857
▁appet	-9858
▁scowl	-9859
▁skies	-9860
▁flashlights	-9861
tre	-9862
▁Glow	-9863
ittered	-9864
▁deeply	-9865
▁nations	-9866
▁scrunch	-9867
▁threatened	-9868
▁rags	-9869
▁Ferris	-9870
▁Gor	-9871
▁Stripe	-9872
▁Spud	-9873
▁Carla	-9874
▁tacos	-9875
▁Oxygen	-9876
▁defend	-9877
▁puffed	-9878
▁builders	-9879
▁fascinating	-9880
ala	-9881
saw	-9882
▁Ring	-9883
▁Barney	-9884
▁studio	-9885
▁deciding	-9886
▁Pot	-9887
▁Liam	-9888
▁creak	-9889
Surrender	-9890
▁importantly	-9891
▁fuss	-9892
▁lumpy	-9893
▁Animals	-9894
▁messier	-9895
ilar	-9896
▁Circle	-9897
▁cooperate	-9898
▁Butterflies	-9899
Two	-9900
▁Tip	-9901
▁sells	-9902
like	-9903
▁tot	-9904
arium	-9905
▁Lady	-9906
▁Spicy	-9907
▁risky	-9908
▁Steven	-9909
▁squashes	-9910
▁donate	-9911
▁larger	-9912
▁restaurants	-9913
▁Gu	-9914
▁Faye	-9915
▁halo	-9916
▁entering	-9917
▁otherwise	-9918
mark	-9919
▁wax	-9920
Climb	-9921
▁Beef	-9922
▁Cammy	-9923
Deal	-9924
Sleep	-9925
▁state	-9926
▁recital	-9927
▁overwhelmed	-9928
▁Joh	-9929
▁glob	-9930
▁rises	-9931
▁gallop	-9932
▁missiles	-9933
▁sweeping	-9934
▁Waffle	-9935
▁patients	-9936
▁conquered	-9937
▁April	-9938
▁suspicious	-9939
▁Worm	-9940
▁circ	-9941
▁remo	-9942
▁repeats	-9943
Whoa	-9944
▁Bubu	-9945
▁pounce	-9946
▁fishies	-9947
▁postcard	-9948
▁persistence	-9949
▁snowed	-9950
▁managing	-9951
ooked	-9952
▁Jose	-9953
▁elders	-9954
▁festivals	-9955
▁hamburgers	-9956
▁wilt	-9957
▁Jes	-9958
▁hoof	-9959
▁leng	-9960
kind	-9961
mmed	-9962
▁cav	-9963
▁sobbing	-9964
fer	-9965
▁Ravi	-9966
elderly	-9967
mmediately	-9968
▁interrupted	-9969
Owl	-9970
ellie	-9971
igner	-9972
▁Match	-9973
▁Carrot	-9974
▁Immediately	-9975
umn	-9976
▁Park	-9977
▁Scissors	-9978
▁Ever	-9979
▁meets	-9980
▁pleas	-9981
oned	-9982
con	-9983
gress	-9984
▁Through	-9985
▁waddling	-9986
▁cucumbers	-9987
acam	-9988
▁Coal	-9989
▁Pingo	-9990
▁deeds	-9991
▁ponyt	-9992
▁soggy	-9993
▁stalk	-9994
acamole	-9995
▁mopping	-9996
▁awa	-9997
▁Winter	-9998
▁cutest	-9999
▁softest	-10000
▁cleverness	-10001
▁Of	-10002
▁Open	-10003
▁fully	-10004
▁lamps	-10005
▁sneaks	-10006
▁territ	-10007
▁gratefully	-10008
▁transported	-10009
▁Bees	-10010
▁Officer	-10011
▁guacamole	-10012
sie	-10013
yield	-10014
▁Liza	-10015
▁Mona	-10016
▁adopt	-10017
▁squawk	-10018
▁confusion	-10019
▁Horse	-10020
▁Sugar	-10021
▁bubbling	-10022
▁quitting	-10023
ai	-10024
peck	-10025
▁shh	-10026
▁Care	-10027
▁hangs	-10028
▁slurp	-10029
▁Blackie	-10030
▁freshly	-10031
▁homemade	-10032
▁yielding	-10033
▁cerem	-10034
▁rattle	-10035
▁trumpets	-10036
▁parks	-10037
▁Looking	-10038
▁hammers	-10039
▁jaws	-10040
▁aloud	-10041
▁handlebar	-10042
udy	-10043
▁snort	-10044
▁swoop	-10045
▁blooms	-10046
▁potions	-10047
▁stomachs	-10048
▁grandkids	-10049
stim	-10050
▁Cut	-10051
▁Jody	-10052
▁tone	-10053
▁energ	-10054
▁beeping	-10055
▁harshly	-10056
▁ceremony	-10057
▁designer	-10058
▁concerned	-10059
▁territory	-10060
▁unexpectedly	-10061
tes	-10062
epeat	-10063
ridge	-10064
▁Past	-10065
▁squinted	-10066
▁globe	-10067
▁squawked	-10068
wood	-10069
▁desire	-10070
▁fitting	-10071
▁flicker	-10072
▁apartment	-10073
▁thoughtfully	-10074
▁grandchildren	-10075
llowed	-10076
▁quacks	-10077
▁requests	-10078
▁preventing	-10079
▁shimmering	-10080
rease	-10081
▁racers	-10082
Lisa	-10083
▁shrugs	-10084
▁sup	-10085
orsie	-10086
▁fond	-10087
▁Surpr	-10088
erestim	-10089
▁Things	-10090
▁trailer	-10091
▁underestim	-10092
ical	-10093
▁grade	-10094
▁honks	-10095
▁wilted	-10096
ae	-10097
▁blend	-10098
▁Oxy	-10099
andel	-10100
ggles	-10101
▁Janet	-10102
▁tongues	-10103
▁matchbox	-10104
▁hammering	-10105
▁succeeding	-10106
poison	-10107
▁Belle	-10108
▁Swimmy	-10109
▁impact	-10110
▁salads	-10111
▁stormy	-10112
▁confidently	-10113
▁exploration	-10114
ource	-10115
rings	-10116
pecker	-10117
▁Johny	-10118
▁croak	-10119
▁rocky	-10120
▁Sleepy	-10121
▁choking	-10122
▁gaining	-10123
▁hurtful	-10124
▁values	-10125
▁refusing	-10126
▁resource	-10127
ants	-10128
▁pairs	-10129
▁oldest	-10130
▁compare	-10131
▁goggles	-10132
▁tempting	-10133
▁skeletons	-10134
car	-10135
upiter	-10136
▁blame	-10137
▁petal	-10138
▁sugge	-10139
▁swapped	-10140
▁suggesting	-10141
!'"	-10142
yle	-10143
▁fist	-10144
▁Comet	-10145
▁firet	-10146
▁Horsie	-10147
▁advant	-10148
▁firetruck	-10149
▁Res	-10150
▁clut	-10151
▁cacti	-10152
OP	-10153
▁Books	-10154
▁unfold	-10155
▁Leopard	-10156
▁dollies	-10157
▁sparrow	-10158
▁winking	-10159
▁Alf	-10160
▁code	-10161
▁howl	-10162
▁wriggling	-10163
▁paramedics	-10164
othy	-10165
rrrr	-10166
mered	-10167
▁fetched	-10168
▁Triangle	-10169
▁leftover	-10170
▁splitting	-10171
Squ	-10172
etti	-10173
peat	-10174
▁Icy	-10175
ically	-10176
▁sends	-10177
▁Martin	-10178
▁prefer	-10179
▁flashes	-10180
ann	-10181
▁lun	-10182
repeat	-10183
▁drill	-10184
▁calmer	-10185
▁sweetly	-10186
▁captured	-10187
▁wobbling	-10188
▁arom	-10189
▁Hours	-10190
▁cooks	-10191
▁folds	-10192
▁exchanged	-10193
rop	-10194
Found	-10195
▁Deal	-10196
▁capes	-10197
▁escaping	-10198
afe	-10199
▁wit	-10200
▁stray	-10201
Something	-10202
▁confetti	-10203
▁earrings	-10204
May	-10205
▁blade	-10206
▁Jupiter	-10207
▁subject	-10208
▁appetite	-10209
▁settling	-10210
ggie	-10211
▁Mop	-10212
▁Whee	-10213
▁Goose	-10214
▁Panda	-10215
▁whiskers	-10216
▁Ind	-10217
▁gal	-10218
▁facts	-10219
▁taxis	-10220
True	-10221
▁Yum	-10222
Whose	-10223
▁rais	-10224
▁horror	-10225
▁Sunshine	-10226
▁bandaged	-10227
▁brag	-10228
▁snip	-10229
Twinkle	-10230
▁thrill	-10231
▁wrappers	-10232
▁woodpecker	-10233
▁crum	-10234
▁caves	-10235
▁hates	-10236
faction	-10237
▁peacefulness	-10238
Got	-10239
opards	-10240
▁March	-10241
▁waded	-10242
▁peeped	-10243
▁bullies	-10244
▁clucked	-10245
▁coaster	-10246
▁volcanoes	-10247
▁satisfaction	-10248
▁Lu	-10249
▁ripp	-10250
▁glared	-10251
▁length	-10252
▁wagons	-10253
▁Patrick	-10254
▁sim	-10255
chief	-10256
Splash	-10257
handed	-10258
▁shaky	-10259
▁glided	-10260
▁surrendering	-10261
elve	-10262
▁Seb	-10263
Jerry	-10264
solute	-10265
▁Wonder	-10266
▁locking	-10267
Momo	-10268
Toys	-10269
ildren	-10270
▁Was	-10271
▁alb	-10272
▁bruise	-10273
innam	-10274
▁plow	-10275
▁snar	-10276
▁aston	-10277
▁bands	-10278
innamon	-10279
▁reck	-10280
▁aroma	-10281
▁dedic	-10282
▁attempts	-10283
▁streaming	-10284
Ooh	-10285
▁dumb	-10286
▁piled	-10287
hearted	-10288
▁Trucky	-10289
▁limping	-10290
affy	-10291
▁Smo	-10292
guess	-10293
▁Summer	-10294
▁villain	-10295
bly	-10296
mine	-10297
ession	-10298
▁seated	-10299
▁skating	-10300
▁stylish	-10301
▁respecting	-10302
▁adv	-10303
▁crust	-10304
▁stirs	-10305
▁itches	-10306
▁arrives	-10307
▁champion	-10308
▁popsicles	-10309
Bet	-10310
res	-10311
▁pea	-10312
▁album	-10313
▁galax	-10314
▁reckless	-10315
okay	-10316
pill	-10317
▁Club	-10318
▁Inch	-10319
▁treas	-10320
▁swirls	-10321
▁recommendations	-10322
▁Sly	-10323
Enjoy	-10324
▁Cher	-10325
▁Land	-10326
▁handled	-10327
▁grilling	-10328
▁Butterfly	-10329
▁certainly	-10330
Aunt	-10331
▁Law	-10332
▁Leah	-10333
▁trad	-10334
▁quilt	-10335
▁secretly	-10336
▁flav	-10337
▁orch	-10338
▁Carly	-10339
▁superp	-10340
▁coconuts	-10341
▁porridge	-10342
▁Jellyfish	-10343
▁favorites	-10344
▁hamburger	-10345
▁Par	-10346
▁Slimy	-10347
▁timid	-10348
▁Purple	-10349
▁crumpled	-10350
▁Er	-10351
▁prof	-10352
▁Mamma	-10353
▁Jennie	-10354
▁strokes	-10355
mail	-10356
aries	-10357
astian	-10358
▁urging	-10359
▁advantage	-10360
▁tightened	-10361
aly	-10362
why	-10363
▁''	-10364
Poor	-10365
▁Coby	-10366
▁rotted	-10367
organize	-10368
▁hundreds	-10369
▁competing	-10370
bert	-10371
▁Hor	-10372
▁fulf	-10373
▁plat	-10374
▁giants	-10375
▁charity	-10376
▁infected	-10377
▁Jasm	-10378
▁muster	-10379
solutely	-10380
▁Biscuit	-10381
▁Del	-10382
▁Again	-10383
▁cracking	-10384
▁platform	-10385
▁Sebastian	-10386
"!	-10387
wear	-10388
▁rect	-10389
▁Dinner	-10390
▁flippers	-10391
▁cupboards	-10392
gum	-10393
▁inn	-10394
▁desper	-10395
▁perked	-10396
▁joyfully	-10397
▁soothing	-10398
▁treasured	-10399
▁cigarettes	-10400
▁hint	-10401
▁hips	-10402
▁twelve	-10403
▁cha	-10404
▁rink	-10405
▁Ginger	-10406
▁cinnamon	-10407
▁fishermen	-10408
aps	-10409
hel	-10410
nded	-10411
unted	-10412
▁Pole	-10413
▁weed	-10414
▁Dolph	-10415
▁pecks	-10416
▁Joanna	-10417
▁offers	-10418
▁savannah	-10419
▁handlebars	-10420
▁une	-10421
▁Brad	-10422
▁Nate	-10423
Ahh	-10424
Bobby	-10425
▁viol	-10426
▁report	-10427
▁Working	-10428
▁ponytail	-10429
▁cancelled	-10430
value	-10431
▁zone	-10432
▁Stand	-10433
▁explos	-10434
▁tiring	-10435
▁Sandra	-10436
▁partner	-10437
▁removing	-10438
▁regretful	-10439
▁sis	-10440
▁Cheese	-10441
▁awaited	-10442
▁Af	-10443
▁anten	-10444
▁innoc	-10445
▁folders	-10446
▁Winky	-10447
adually	-10448
▁energized	-10449
▁scrubbing	-10450
lyn	-10451
▁Cats	-10452
▁Doll	-10453
▁Rina	-10454
▁guided	-10455
▁compartment	-10456
Slow	-10457
bang	-10458
▁Porky	-10459
▁autumn	-10460
▁Flicker	-10461
▁comfortably	-10462
▁rele	-10463
▁stun	-10464
▁Trees	-10465
▁photog	-10466
▁appears	-10467
▁moles	-10468
▁payoff	-10469
▁Stanley	-10470
▁harmony	-10471
▁glittery	-10472
▁windmill	-10473
▁attendant	-10474
▁suitcases	-10475
eller	-10476
ential	-10477
believe	-10478
ocolate	-10479
▁pucker	-10480
▁wetter	-10481
▁Gorilla	-10482
▁Jasmine	-10483
▁buckles	-10484
▁progress	-10485
▁sideways	-10486
▁releasing	-10487
lean	-10488
▁Barber	-10489
aterpill	-10490
▁collars	-10491
life	-10492
▁Hal	-10493
▁jogs	-10494
▁dares	-10495
treating	-10496
▁vibrant	-10497
▁perspect	-10498
▁Ber	-10499
▁Wor	-10500
▁targets	-10501
organized	-10502
▁taps	-10503
▁tingle	-10504
▁guesses	-10505
▁mustered	-10506
▁bubblegum	-10507
oss	-10508
apple	-10509
▁diet	-10510
▁Settle	-10511
▁switches	-10512
▁recommending	-10513
▁Boy	-10514
▁Pir	-10515
▁daily	-10516
▁hairs	-10517
brushes	-10518
▁parrots	-10519
▁Sharp	-10520
▁smelt	-10521
▁solid	-10522
▁feeder	-10523
▁pastor	-10524
▁scarier	-10525
▁Hunt	-10526
▁Pain	-10527
▁Roar	-10528
▁spades	-10529
Polly	-10530
▁errand	-10531
▁hollow	-10532
▁orchard	-10533
▁Graceful	-10534
▁conversations	-10535
raw	-10536
acher	-10537
▁Greg	-10538
▁Race	-10539
▁setup	-10540
▁Skelet	-10541
▁hummed	-10542
▁unlike	-10543
▁storing	-10544
▁scut	-10545
▁dumped	-10546
▁realise	-10547
bs	-10548
tled	-10549
▁whir	-10550
▁grilled	-10551
▁panting	-10552
▁scoring	-10553
▁poisoned	-10554
▁interrupt	-10555
Tiny	-10556
itam	-10557
▁Lear	-10558
▁Mail	-10559
▁Stinky	-10560
Say	-10561
look	-10562
▁bold	-10563
everse	-10564
▁route	-10565
▁grazing	-10566
▁snuggling	-10567
▁discussion	-10568
▁Ernie	-10569
▁amuse	-10570
▁squirm	-10571
▁announce	-10572
▁confusing	-10573
▁lif	-10574
▁floaty	-10575
▁chugging	-10576
▁simplest	-10577
▁calming	-10578
robes	-10579
▁desperate	-10580
Frog	-10581
▁Robot	-10582
▁Magnet	-10583
▁dining	-10584
surrender	-10585
aken	-10586
pole	-10587
Three	-10588
▁Lucas	-10589
▁praise	-10590
▁Cookies	-10591
▁Hur	-10592
▁Alan	-10593
Birdie	-10594
▁stash	-10595
▁vitam	-10596
▁Number	-10597
▁Starry	-10598
▁unload	-10599
▁runners	-10600
▁valleys	-10601
ata	-10602
▁quality	-10603
▁collections	-10604
Bee	-10605
▁shiniest	-10606
▁amusement	-10607
Mar	-10608
Buzz	-10609
▁huff	-10610
▁Guard	-10611
▁lighthouse	-10612
▁gn	-10613
Play	-10614
▁Girl	-10615
uccess	-10616
▁Avery	-10617
▁cranes	-10618
▁Reading	-10619
▁Scratch	-10620
gra	-10621
Share	-10622
print	-10623
▁aband	-10624
▁Carrie	-10625
▁overnight	-10626
▁useless	-10627
▁astonished	-10628
▁Iron	-10629
▁Wake	-10630
▁Tears	-10631
▁chann	-10632
▁plank	-10633
▁Wiggle	-10634
▁mooing	-10635
▁desperately	-10636
▁pits	-10637
▁helpfulness	-10638
▁Spin	-10639
resses	-10640
▁Josie	-10641
▁lobby	-10642
▁salsa	-10643
▁strikes	-10644
ibly	-10645
Catch	-10646
alled	-10647
▁Char	-10648
coming	-10649
vering	-10650
▁creepy	-10651
▁device	-10652
▁passion	-10653
ets	-10654
Fred	-10655
▁Tay	-10656
▁mur	-10657
▁ladders	-10658
▁Broccoli	-10659
▁jealousy	-10660
Move	-10661
anie	-10662
▁pail	-10663
▁Cluck	-10664
▁walker	-10665
▁carriage	-10666
▁background	-10667
nings	-10668
▁Craw	-10669
▁Fore	-10670
goodbye	-10671
▁explan	-10672
▁dedication	-10673
▁disappears	-10674
Ra	-10675
▁Cop	-10676
inter	-10677
▁chances	-10678
▁firewood	-10679
▁roasting	-10680
▁stretcher	-10681
▁perspective	-10682
▁Socky	-10683
▁purch	-10684
▁Mister	-10685
▁driven	-10686
▁options	-10687
▁peeling	-10688
▁suggestions	-10689
▁canes	-10690
▁crouched	-10691
▁leopards	-10692
hot	-10693
▁Potato	-10694
▁bedside	-10695
▁unlocks	-10696
▁possibilities	-10697
▁Bell	-10698
▁Last	-10699
▁flam	-10700
▁loosen	-10701
▁priest	-10702
▁described	-10703
ani	-10704
spect	-10705
▁Mild	-10706
▁blind	-10707
▁polka	-10708
▁Breezy	-10709
▁crooked	-10710
▁Skeleton	-10711
▁underwear	-10712
urr	-10713
rimp	-10714
ascal	-10715
hadow	-10716
▁Squawk	-10717
▁patting	-10718
▁eyeshadow	-10719
Miss	-10720
▁perch	-10721
▁runway	-10722
Cool	-10723
▁Cact	-10724
▁sund	-10725
▁Allie	-10726
▁persu	-10727
▁awhile	-10728
▁Jonathan	-10729
▁protects	-10730
onel	-10731
store	-10732
▁Dilly	-10733
▁Driver	-10734
▁porcup	-10735
▁fiercely	-10736
Johnny	-10737
shrink	-10738
▁Allowed	-10739
▁musical	-10740
▁Cleaning	-10741
?!	-10742
mie	-10743
▁unpl	-10744
▁bacon	-10745
▁Marley	-10746
▁erased	-10747
enses	-10748
itive	-10749
▁Hipp	-10750
▁Carol	-10751
▁mustaches	-10752
▁vict	-10753
▁Claws	-10754
▁Gemma	-10755
▁outer	-10756
▁perse	-10757
▁sleeves	-10758
Fish	-10759
Shoo	-10760
▁Tick	-10761
▁combs	-10762
▁lonel	-10763
▁enjoys	-10764
▁flutes	-10765
▁whines	-10766
Mon	-10767
cip	-10768
run	-10769
Mind	-10770
▁Jere	-10771
▁Tidy	-10772
▁Coffee	-10773
▁movement	-10774
▁Hops	-10775
▁receiving	-10776
ew	-10777
Tell	-10778
iders	-10779
barrow	-10780
▁chewy	-10781
▁reflect	-10782
▁screens	-10783
▁wheelbarrow	-10784
▁du	-10785
ping	-10786
rica	-10787
▁unp	-10788
▁Rara	-10789
▁Dancing	-10790
Accidents	-10791
▁incredibly	-10792
▁Ha	-10793
Ella	-10794
▁centre	-10795
▁describe	-10796
▁glittered	-10797
▁strengths	-10798
!'.	-10799
ami	-10800
▁bendy	-10801
▁slime	-10802
▁warns	-10803
immered	-10804
▁Africa	-10805
▁bruised	-10806
▁hopeless	-10807
▁softness	-10808
▁explosion	-10809
Brown	-10810
▁Dream	-10811
▁Libby	-10812
▁surfer	-10813
▁princip	-10814
▁marveled	-10815
▁var	-10816
phies	-10817
▁Deer	-10818
▁rash	-10819
▁Randy	-10820
▁limits	-10821
rice	-10822
▁Cake	-10823
▁kill	-10824
▁summ	-10825
▁Pebby	-10826
▁peeks	-10827
▁waddle	-10828
▁bathrobes	-10829
▁Pass	-10830
▁chaos	-10831
▁ducky	-10832
▁vases	-10833
▁incident	-10834
pers	-10835
aling	-10836
▁Jiminy	-10837
▁Spinny	-10838
▁Taylor	-10839
▁furious	-10840
▁porcupine	-10841
ifer	-10842
▁Didi	-10843
▁grain	-10844
▁chooses	-10845
▁strummed	-10846
▁encounter	-10847
Ros	-10848
Drink	-10849
▁Butt	-10850
▁blob	-10851
▁main	-10852
▁dives	-10853
▁Rascal	-10854
▁Caterpill	-10855
▁Ami	-10856
▁cruel	-10857
▁winks	-10858
▁stomping	-10859
▁interests	-10860
▁courageous	-10861
eech	-10862
▁mitt	-10863
ateful	-10864
▁Silly	-10865
▁volume	-10866
▁trophies	-10867
dis	-10868
sides	-10869
▁Ding	-10870
▁peak	-10871
▁soul	-10872
▁tend	-10873
▁Music	-10874
▁stiff	-10875
Butterfly	-10876
▁hurrying	-10877
▁mailboxes	-10878
▁principal	-10879
▁tul	-10880
Rosie	-10881
▁Sail	-10882
▁possessions	-10883
osp	-10884
wow	-10885
seat	-10886
▁dizz	-10887
▁Square	-10888
▁bossed	-10889
▁roamed	-10890
▁speech	-10891
▁unkind	-10892
▁Singing	-10893
▁abandoned	-10894
▁explanation	-10895
alue	-10896
zzly	-10897
▁Fun	-10898
▁Gret	-10899
▁Colin	-10900
▁riches	-10901
▁Octopus	-10902
▁motions	-10903
▁heaviest	-10904
▁attacking	-10905
'!"	-10906
Hoor	-10907
▁Gert	-10908
Hooray	-10909
▁donut	-10910
▁Patient	-10911
▁besides	-10912
▁subjects	-10913
ule	-10914
▁pave	-10915
▁clocks	-10916
▁Fa	-10917
▁Hat	-10918
▁lave	-10919
▁mower	-10920
Promise	-10921
▁pavement	-10922
Everything	-10923
▁ou	-10924
▁Gri	-10925
▁Leaf	-10926
▁buys	-10927
▁grasp	-10928
osquito	-10929
▁Nature	-10930
▁raisins	-10931
▁Jennifer	-10932
▁lavender	-10933
▁cartwheels	-10934
▁ic	-10935
▁Rag	-10936
▁slot	-10937
▁wands	-10938
▁Joseph	-10939
▁appoint	-10940
▁studies	-10941
▁stitching	-10942
Bug	-10943
imba	-10944
▁Pear	-10945
▁Feather	-10946
▁handles	-10947
▁meadows	-10948
▁strolled	-10949
▁outsmarted	-10950
Fr	-10951
▁flush	-10952
▁nudged	-10953
▁embrace	-10954
▁sneakers	-10955
esy	-10956
▁flex	-10957
stupid	-10958
▁Apple	-10959
▁habits	-10960
▁Imagine	-10961
▁rainstorm	-10962
care	-10963
Clean	-10964
riting	-10965
▁Horsy	-10966
▁Lemon	-10967
▁heater	-10968
▁slight	-10969
▁Hurricane	-10970
▁Fluff	-10971
▁Nelly	-10972
▁diver	-10973
▁noodle	-10974
▁skates	-10975
▁unloaded	-10976
▁Need	-10977
▁basil	-10978
chanted	-10979
▁Crabbie	-10980
vester	-10981
▁Spoon	-10982
she	-10983
aris	-10984
▁toad	-10985
▁grave	-10986
▁agreeing	-10987
▁twitched	-10988
Sit	-10989
ryst	-10990
▁wan	-10991
otcha	-10992
▁Swim	-10993
flower	-10994
▁risen	-10995
▁dodging	-10996
▁notebooks	-10997
▁Toy	-10998
Wisdom	-10999
▁Clare	-11000
▁mustn	-11001
▁saves	-11002
▁croiss	-11003
▁thinner	-11004
▁horrible	-11005
▁projects	-11006
HE	-11007
bag	-11008
ige	-11009
stone	-11010
▁Doug	-11011
▁Roxy	-11012
▁Brain	-11013
behaved	-11014
iration	-11015
▁Jeremy	-11016
▁Friendship	-11017
▁Simba	-11018
▁farms	-11019
▁conquer	-11020
oors	-11021
▁obl	-11022
▁lush	-11023
▁plum	-11024
▁Father	-11025
▁errands	-11026
▁indoors	-11027
▁passage	-11028
▁steered	-11029
▁squirmed	-11030
▁stumbling	-11031
Ray	-11032
From	-11033
iety	-11034
Jenny	-11035
venge	-11036
▁Purr	-11037
people	-11038
▁wanna	-11039
▁Sharks	-11040
▁droopy	-11041
▁lately	-11042
▁nearer	-11043
ssssssss	-11044
icent	-11045
▁swer	-11046
▁snore	-11047
▁blasted	-11048
Te	-11049
▁Cleo	-11050
▁private	-11051
▁revenge	-11052
idi	-11053
▁hare	-11054
▁undo	-11055
record	-11056
▁Fizzy	-11057
▁heated	-11058
▁spoken	-11059
RA	-11060
▁guid	-11061
▁tales	-11062
▁reader	-11063
▁Brother	-11064
▁privacy	-11065
▁guidance	-11066
▁headphones	-11067
mp	-11068
▁Soar	-11069
▁dips	-11070
▁Could	-11071
▁mango	-11072
▁Riding	-11073
▁glanced	-11074
ows	-11075
▁grains	-11076
▁richer	-11077
ctopuses	-11078
▁streams	-11079
▁Rad	-11080
▁Clay	-11081
▁Turn	-11082
ashion	-11083
▁Brush	-11084
▁Fireman	-11085
▁teaspoons	-11086
▁jay	-11087
▁whirl	-11088
nderneath	-11089
▁figuring	-11090
▁Sylvester	-11091
▁appointment	-11092
zer	-11093
dles	-11094
oyal	-11095
▁Jenkins	-11096
▁Confused	-11097
▁cactuses	-11098
▁assistant	-11099
nis	-11100
▁Di	-11101
▁hu	-11102
Boom	-11103
ships	-11104
▁Rick	-11105
People	-11106
▁Cocoa	-11107
▁scree	-11108
▁shuff	-11109
▁Casper	-11110
▁dashed	-11111
▁howled	-11112
▁daddies	-11113
▁railing	-11114
▁hammered	-11115
▁enchanted	-11116
▁supportive	-11117
▁roam	-11118
▁loads	-11119
stantly	-11120
▁Matthew	-11121
▁messing	-11122
▁suggests	-11123
▁Ned	-11124
▁Hippo	-11125
▁Jesus	-11126
▁hobby	-11127
berries	-11128
▁Should	-11129
▁copies	-11130
▁repairs	-11131
▁backseat	-11132
▁hovering	-11133
▁pleasant	-11134
▁silently	-11135
▁clam	-11136
▁Gw	-11137
▁Wal	-11138
ulture	-11139
▁honor	-11140
Brownie	-11141
▁cheesy	-11142
▁proved	-11143
▁Patches	-11144
▁clogged	-11145
▁lawyers	-11146
Jen	-11147
mar	-11148
▁strict	-11149
▁howling	-11150
▁flipping	-11151
▁trapping	-11152
ugga	-11153
▁Tap	-11154
▁hyd	-11155
▁Meow	-11156
▁blur	-11157
ibbles	-11158
rystal	-11159
▁unatt	-11160
▁urges	-11161
ignorant	-11162
▁blender	-11163
▁gummies	-11164
▁observant	-11165
▁replacing	-11166
▁Cell	-11167
▁hydr	-11168
▁ridden	-11169
▁glisten	-11170
▁magnificent	-11171
▁School	-11172
▁hooted	-11173
▁Climbing	-11174
▁punishing	-11175
▁En	-11176
etime	-11177
Gotcha	-11178
▁leaped	-11179
▁meanings	-11180
▁vitamins	-11181
▁practised	-11182
Emily	-11183
▁dying	-11184
▁Cherry	-11185
▁assured	-11186
▁innocent	-11187
▁sweetness	-11188
▁absolutely	-11189
▁townspeople	-11190
▁Honest	-11191
Tomorrow	-11192
▁purchase	-11193
▁terribly	-11194
▁floaties	-11195
▁snowstorm	-11196
NG	-11197
▁skips	-11198
▁cooper	-11199
▁potential	-11200
▁rectangle	-11201
ils	-11202
▁twirls	-11203
▁islands	-11204
▁uniting	-11205
▁disgusted	-11206
▁Jun	-11207
▁Mac	-11208
▁doub	-11209
▁tech	-11210
▁outsmart	-11211
▁selfishness	-11212
Aww	-11213
gre	-11214
mind	-11215
▁Boot	-11216
▁grind	-11217
▁tastier	-11218
▁pounding	-11219
▁chessboard	-11220
arer	-11221
▁lens	-11222
▁Nicky	-11223
▁scowled	-11224
wh	-11225
▁keen	-11226
▁dries	-11227
▁rustle	-11228
▁paintbrushes	-11229
knob	-11230
phew	-11231
▁Soap	-11232
▁Alarm	-11233
▁Jodie	-11234
▁boast	-11235
▁chirps	-11236
▁prison	-11237
▁volunt	-11238
▁greater	-11239
▁snipped	-11240
▁lifetime	-11241
▁scrunched	-11242
pay	-11243
chug	-11244
isie	-11245
▁Tur	-11246
▁nephew	-11247
▁doorknob	-11248
▁raindrop	-11249
▁photograp	-11250
▁frightening	-11251
esky	-11252
▁jigg	-11253
▁mend	-11254
▁yuck	-11255
▁Shake	-11256
indness	-11257
▁Promise	-11258
ks	-11259
od	-11260
▁fid	-11261
▁JoJo	-11262
▁pesky	-11263
▁Shrimp	-11264
▁fished	-11265
▁Respect	-11266
▁claimed	-11267
▁similar	-11268
▁toothache	-11269
mosp	-11270
▁buds	-11271
▁kern	-11272
▁Funny	-11273
▁Juice	-11274
▁gladly	-11275
mosphere	-11276
▁circled	-11277
▁safaris	-11278
▁Carefully	-11279
▁drumstick	-11280
loat	-11281
▁Sis	-11282
▁gul	-11283
▁Marg	-11284
▁damp	-11285
▁roofs	-11286
▁smoky	-11287
▁afloat	-11288
▁bundle	-11289
▁thirst	-11290
▁Nibbles	-11291
▁reality	-11292
▁atmosphere	-11293
ooh	-11294
Meet	-11295
▁Pep	-11296
▁oars	-11297
▁shrimps	-11298
▁contented	-11299
',"	-11300
Care	-11301
Push	-11302
rays	-11303
▁Money	-11304
▁guilt	-11305
▁kayaks	-11306
▁crosses	-11307
Bo	-11308
ierce	-11309
▁Bebe	-11310
▁Frid	-11311
ustrated	-11312
▁flamingo	-11313
▁chattering	-11314
▁photographer	-11315
boom	-11316
exit	-11317
orthy	-11318
▁envy	-11319
▁Fisher	-11320
▁Rhinoceros	-11321
ki	-11322
▁Op	-11323
▁whisk	-11324
▁Joanne	-11325
▁flagpole	-11326
▁misbehave	-11327
irls	-11328
star	-11329
▁sung	-11330
▁destr	-11331
▁sales	-11332
▁scaly	-11333
▁trustw	-11334
▁presence	-11335
▁recovered	-11336
▁remaining	-11337
▁Hot	-11338
Poppy	-11339
▁fate	-11340
▁poll	-11341
▁unsc	-11342
▁Crawl	-11343
▁Pizza	-11344
▁aback	-11345
▁spool	-11346
▁yawns	-11347
▁Maisie	-11348
▁brightened	-11349
▁foreshadowed	-11350
▁Wow	-11351
▁rev	-11352
tingu	-11353
▁oink	-11354
▁fixes	-11355
▁prices	-11356
▁extingu	-11357
▁possession	-11358
▁opportunities	-11359
▁Bi	-11360
▁pi	-11361
Mary	-11362
▁Rory	-11363
icated	-11364
▁igloos	-11365
▁wobbles	-11366
▁unattended	-11367
Rest	-11368
anky	-11369
stack	-11370
▁slings	-11371
▁raw	-11372
shake	-11373
▁Gwen	-11374
▁stems	-11375
▁skulls	-11376
▁cabinets	-11377
▁loneliness	-11378
▁achievement	-11379
▁Hook	-11380
▁Mumma	-11381
▁Hunter	-11382
▁depths	-11383
▁snails	-11384
onk	-11385
acey	-11386
lock	-11387
▁bon	-11388
▁bins	-11389
▁scariest	-11390
orious	-11391
▁Drink	-11392
▁mixes	-11393
▁overc	-11394
▁roles	-11395
▁sundae	-11396
together	-11397
▁sunsets	-11398
inc	-11399
More	-11400
Sque	-11401
▁Hero	-11402
▁bales	-11403
▁repay	-11404
▁channel	-11405
▁dizziness	-11406
▁trustworthy	-11407
Ann	-11408
eyed	-11409
▁dut	-11410
▁unra	-11411
▁claim	-11412
▁limped	-11413
▁Timothy	-11414
ption	-11415
unate	-11416
vious	-11417
▁Cotton	-11418
▁goalie	-11419
▁gobble	-11420
▁barrels	-11421
▁blaring	-11422
▁Stealing	-11423
▁pineapple	-11424
▁foreshadowing	-11425
▁Half	-11426
▁raises	-11427
▁gemstone	-11428
▁Lo	-11429
▁Eng	-11430
▁burp	-11431
▁sauc	-11432
▁curve	-11433
▁shame	-11434
through	-11435
▁Though	-11436
▁drifting	-11437
▁flickered	-11438
▁tradition	-11439
▁permitting	-11440
hoot	-11441
▁dim	-11442
▁Tuck	-11443
▁snatch	-11444
▁tighten	-11445
ira	-11446
▁Noah	-11447
▁pred	-11448
▁theat	-11449
▁amongst	-11450
▁galloped	-11451
▁gad	-11452
oomie	-11453
▁cock	-11454
▁ripples	-11455
▁trained	-11456
▁Fisherman	-11457
Her	-11458
Birdy	-11459
▁Flea	-11460
filled	-11461
▁Pearl	-11462
▁smoot	-11463
▁sawing	-11464
▁culture	-11465
▁mornings	-11466
▁mesmerised	-11467
cell	-11468
Snowy	-11469
▁witn	-11470
▁Brave	-11471
▁Matty	-11472
▁Pirate	-11473
▁venture	-11474
▁spotless	-11475
▁mightiest	-11476
▁Frustrated	-11477
▁glistening	-11478
At	-11479
reck	-11480
▁Son	-11481
▁Bibo	-11482
▁Down	-11483
bridge	-11484
▁Teach	-11485
▁superpowers	-11486
tling	-11487
▁Flame	-11488
▁gulped	-11489
▁Sitting	-11490
▁slingshot	-11491
▁underestimate	-11492
Sm	-11493
Show	-11494
reya	-11495
▁Str	-11496
▁Heidi	-11497
▁Shell	-11498
▁gruff	-11499
▁stripe	-11500
▁creaked	-11501
▁cutters	-11502
▁handling	-11503
▁unplugged	-11504
athy	-11505
talk	-11506
▁Comp	-11507
tocked	-11508
▁Ronny	-11509
▁scolding	-11510
▁mow	-11511
chest	-11512
▁Fran	-11513
▁Daffy	-11514
▁yards	-11515
▁rustled	-11516
▁striped	-11517
▁independence	-11518
iana	-11519
ously	-11520
healthy	-11521
inosaur	-11522
▁wrists	-11523
▁classes	-11524
▁drummer	-11525
▁shyness	-11526
umed	-11527
▁Dull	-11528
▁icic	-11529
▁dodge	-11530
▁leaks	-11531
▁choked	-11532
▁begging	-11533
▁placing	-11534
▁slightly	-11535
Sw	-11536
Four	-11537
thur	-11538
▁plo	-11539
▁Freya	-11540
▁snarled	-11541
▁sucking	-11542
▁staircase	-11543
▁Top	-11544
ossom	-11545
▁Mars	-11546
▁Mind	-11547
▁Sean	-11548
▁begs	-11549
Reverse	-11550
▁Av	-11551
▁chem	-11552
▁plus	-11553
▁Billie	-11554
▁ye	-11555
poke	-11556
▁aqu	-11557
▁Fanny	-11558
▁boomed	-11559
▁fancier	-11560
▁quicker	-11561
▁unfolded	-11562
▁collector	-11563
▁altogether	-11564
wee	-11565
▁Gia	-11566
crack	-11567
▁death	-11568
▁loser	-11569
▁props	-11570
▁Arthur	-11571
▁dandel	-11572
▁collage	-11573
▁hairsty	-11574
▁outcome	-11575
▁impatiently	-11576
cel	-11577
mon	-11578
fect	-11579
imbo	-11580
▁laz	-11581
Dolly	-11582
▁Dora	-11583
▁oint	-11584
▁tilt	-11585
▁Prune	-11586
▁brief	-11587
coaster	-11588
▁cavity	-11589
▁walkie	-11590
▁ki	-11591
Prin	-11592
Pizza	-11593
▁ages	-11594
▁mast	-11595
▁Flash	-11596
▁trails	-11597
▁antenna	-11598
▁lightly	-11599
▁tornadoes	-11600
▁drawbridge	-11601
▁protective	-11602
Duck	-11603
tles	-11604
umbo	-11605
▁Roy	-11606
▁nanny	-11607
▁raged	-11608
▁sawed	-11609
uttered	-11610
▁Twisty	-11611
▁policy	-11612
grateful	-11613
▁judging	-11614
▁spinach	-11615
▁theatre	-11616
▁clothing	-11617
▁ointment	-11618
▁attracted	-11619
▁div	-11620
▁eater	-11621
Careful	-11622
▁Albert	-11623
▁fairly	-11624
▁forced	-11625
▁glimmer	-11626
▁records	-11627
▁watchful	-11628
▁contained	-11629
▁witnessed	-11630
▁rollercoaster	-11631
▁Wad	-11632
▁gulp	-11633
▁Willie	-11634
▁archer	-11635
▁blouses	-11636
▁luckier	-11637
▁sighing	-11638
Gr	-11639
Moon	-11640
reet	-11641
▁War	-11642
▁Sisi	-11643
▁Dusty	-11644
▁sacri	-11645
▁Willow	-11646
▁intern	-11647
▁severe	-11648
▁approaching	-11649
Bu	-11650
Rabbit	-11651
▁Bessy	-11652
▁clover	-11653
▁squirt	-11654
▁widely	-11655
▁Greenie	-11656
▁unlucky	-11657
▁valuing	-11658
▁Soft	-11659
▁craz	-11660
▁whoo	-11661
▁bulls	-11662
▁swarm	-11663
entions	-11664
▁bleeds	-11665
▁fourth	-11666
▁shaken	-11667
▁cucumber	-11668
uns	-11669
▁Bossy	-11670
▁lakes	-11671
▁arrange	-11672
▁wiggles	-11673
▁aquarium	-11674
▁tumbling	-11675
▁THE	-11676
eness	-11677
rican	-11678
▁Amen	-11679
▁till	-11680
▁Hairy	-11681
▁approval	-11682
▁involved	-11683
▁majestic	-11684
▁swirling	-11685
▁speck	-11686
▁crumble	-11687
▁internet	-11688
▁overcame	-11689
▁schoolwork	-11690
Sc	-11691
▁Gen	-11692
▁Sid	-11693
▁Crystal	-11694
▁beavers	-11695
▁splinter	-11696
▁tingling	-11697
▁dishonest	-11698
▁Thermometer	-11699
Tweety	-11700
▁Otter	-11701
▁Small	-11702
▁hired	-11703
Squirrel	-11704
▁flavour	-11705
▁ruffled	-11706
▁doghouse	-11707
Jim	-11708
Lulu	-11709
▁Loyal	-11710
SH	-11711
OOM	-11712
Whe	-11713
don	-11714
▁Den	-11715
▁Eag	-11716
Right	-11717
▁Rani	-11718
▁views	-11719
▁forwards	-11720
▁register	-11721
Wee	-11722
moo	-11723
vey	-11724
▁Cube	-11725
▁dise	-11726
▁prey	-11727
▁vast	-11728
▁Faith	-11729
▁Jimbo	-11730
▁Pilot	-11731
▁mound	-11732
alities	-11733
▁Anything	-11734
▁Caroline	-11735
▁anxiously	-11736
tw	-11737
▁Pige	-11738
▁balc	-11739
▁Majest	-11740
▁princes	-11741
▁unscrew	-11742
teen	-11743
works	-11744
▁Wood	-11745
▁loaf	-11746
▁lure	-11747
▁layer	-11748
▁blinks	-11749
▁flipper	-11750
▁Ask	-11751
gency	-11752
inting	-11753
▁Doing	-11754
▁Ducks	-11755
▁strap	-11756
▁stalks	-11757
▁instant	-11758
▁notices	-11759
▁grumbling	-11760
rain	-11761
▁Bean	-11762
▁kneels	-11763
▁Majesty	-11764
▁threats	-11765
▁sledding	-11766
away	-11767
beat	-11768
▁Swan	-11769
▁budd	-11770
▁empt	-11771
▁loss	-11772
▁fired	-11773
▁colony	-11774
▁spatul	-11775
▁unsafe	-11776
▁Believe	-11777
▁carving	-11778
▁transformation	-11779
War	-11780
With	-11781
anga	-11782
gent	-11783
▁Layla	-11784
▁boost	-11785
▁spine	-11786
pensive	-11787
▁outrun	-11788
▁contents	-11789
▁baseballs	-11790
Ten	-11791
▁ray	-11792
ornado	-11793
▁smash	-11794
▁stump	-11795
▁dearly	-11796
▁clearer	-11797
▁grounded	-11798
▁gradually	-11799
▁playdough	-11800
Pass	-11801
umbs	-11802
▁Salt	-11803
▁Alexa	-11804
▁dusting	-11805
▁licenses	-11806
▁mischief	-11807
Per	-11808
woo	-11809
▁Ban	-11810
smith	-11811
▁Cozy	-11812
▁jeans	-11813
atience	-11814
cellent	-11815
▁steaks	-11816
▁buddies	-11817
▁majesty	-11818
▁plopped	-11819
▁reddest	-11820
▁Learning	-11821
▁brighten	-11822
abella	-11823
▁Greta	-11824
▁dozed	-11825
▁sprung	-11826
▁Ladybug	-11827
▁balcony	-11828
▁breadcr	-11829
▁disease	-11830
▁rhythms	-11831
▁invention	-11832
▁blacksmith	-11833
▁tournament	-11834
▁surprisingly	-11835
Ta	-11836
inic	-11837
izer	-11838
test	-11839
ances	-11840
▁Cate	-11841
▁Long	-11842
▁bled	-11843
▁Onion	-11844
▁Gertie	-11845
▁Rumble	-11846
▁withstand	-11847
▁connection	-11848
xie	-11849
oris	-11850
Repeat	-11851
▁Margaret	-11852
▁dragging	-11853
▁billboards	-11854
▁personality	-11855
ior	-11856
▁tucks	-11857
▁grades	-11858
▁Johnnie	-11859
▁springs	-11860
▁embarrassment	-11861
udrey	-11862
▁Free	-11863
▁scan	-11864
▁bould	-11865
▁equal	-11866
▁savored	-11867
▁childhood	-11868
▁destruction	-11869
ydia	-11870
appear	-11871
ashing	-11872
ontail	-11873
▁banner	-11874
▁Instantly	-11875
▁mattresses	-11876
▁recognizing	-11877
▁disorganized	-11878
Any	-11879
dream	-11880
▁dong	-11881
▁Percy	-11882
measure	-11883
▁detail	-11884
▁Isabella	-11885
▁luxurious	-11886
pol	-11887
▁goods	-11888
▁picky	-11889
▁rainwater	-11890
▁Cottontail	-11891
del	-11892
rors	-11893
▁New	-11894
▁Sau	-11895
marry	-11896
▁Three	-11897
▁desce	-11898
venture	-11899
▁Audrey	-11900
▁Bernie	-11901
▁clinic	-11902
▁galaxy	-11903
▁stares	-11904
Whenever	-11905
▁forming	-11906
▁inching	-11907
▁survived	-11908
Cra	-11909
Andy	-11910
ills	-11911
yuck	-11912
elsey	-11913
▁shove	-11914
▁Friday	-11915
▁arrest	-11916
▁breadcrumbs	-11917
Five	-11918
oses	-11919
▁Saf	-11920
▁Isabel	-11921
▁tailor	-11922
▁disobedient	-11923
▁Oy	-11924
Turn	-11925
▁Fit	-11926
▁recy	-11927
onight	-11928
▁Alfie	-11929
▁Lions	-11930
▁fifty	-11931
▁sinks	-11932
▁backup	-11933
▁cockpit	-11934
▁spatula	-11935
▁littlest	-11936
▁marrying	-11937
▁forgetful	-11938
▁scribbles	-11939
▁reassuring	-11940
illie	-11941
omers	-11942
▁radi	-11943
making	-11944
▁Lydia	-11945
▁dodges	-11946
▁jingle	-11947
▁packet	-11948
▁remains	-11949
▁resources	-11950
▁ungrateful	-11951
mit	-11952
love	-11953
▁lair	-11954
Doctor	-11955
▁clums	-11956
▁glide	-11957
▁tapes	-11958
portant	-11959
ricanes	-11960
▁oinked	-11961
▁thirty	-11962
▁launched	-11963
▁sharpened	-11964
▁adventurers	-11965
▁unc	-11966
▁Tube	-11967
▁West	-11968
▁Hilda	-11969
▁Pengu	-11970
▁Sheep	-11971
▁Duckie	-11972
▁Flowers	-11973
▁product	-11974
▁volunteer	-11975
ylan	-11976
▁Bao	-11977
▁Int	-11978
▁Rosy	-11979
▁garl	-11980
Ouchie	-11981
▁Petey	-11982
▁Spotty	-11983
▁effect	-11984
▁flyers	-11985
▁scooping	-11986
▁ticklish	-11987
▁announcement	-11988
bowl	-11989
Dinner	-11990
▁deepest	-11991
▁daydream	-11992
▁ladybird	-11993
▁predator	-11994
▁blessings	-11995
▁playfully	-11996
▁Ce	-11997
▁woo	-11998
wheel	-11999
▁Dough	-12000
▁Night	-12001
▁medium	-12002
▁reeled	-12003
▁splint	-12004
▁limeade	-12005
▁needing	-12006
Pick	-12007
▁Burt	-12008
▁Cass	-12009
Choose	-12010
▁chunk	-12011
▁worlds	-12012
▁Caterpillar	-12013
▁Deaf	-12014
ousand	-12015
▁Shine	-12016
▁glimp	-12017
▁bullet	-12018
▁Spiders	-12019
▁clevere	-12020
▁pinches	-12021
▁sprinkler	-12022
▁responsibly	-12023
eras	-12024
hill	-12025
ocks	-12026
▁jer	-12027
▁nin	-12028
▁Susy	-12029
▁Tiki	-12030
▁sunk	-12031
▁vows	-12032
omersa	-12033
▁Ghost	-12034
▁Jetty	-12035
▁fewer	-12036
▁recyc	-12037
▁total	-12038
▁flakes	-12039
▁latest	-12040
▁anybody	-12041
▁somersa	-12042
icia	-12043
maker	-12044
▁Flip	-12045
▁begun	-12046
wealthy	-12047
▁pooped	-12048
▁twitch	-12049
Children	-12050
▁protest	-12051
▁trimmed	-12052
▁counters	-12053
atic	-12054
▁Melt	-12055
▁liar	-12056
▁cloak	-12057
▁hotdog	-12058
▁lunged	-12059
▁risking	-12060
▁swirled	-12061
▁variety	-12062
▁yummier	-12063
▁shutting	-12064
▁crackling	-12065
▁loc	-12066
▁atop	-12067
▁Dylan	-12068
▁reins	-12069
▁Shiver	-12070
▁concern	-12071
▁Mosquito	-12072
▁gestures	-12073
▁snuggles	-12074
▁sprouted	-12075
▁truthful	-12076
▁extinguisher	-12077
ada	-12078
▁Yay	-12079
▁gle	-12080
Robot	-12081
ingly	-12082
▁Gail	-12083
▁glory	-12084
▁jeeps	-12085
▁tissues	-12086
▁handyman	-12087
▁organised	-12088
▁surrounding	-12089
hoe	-12090
▁Sit	-12091
▁hiking	-12092
▁jiggled	-12093
▁Surprised	-12094
▁accessories	-12095
Wo	-12096
tie	-12097
zip	-12098
▁py	-12099
▁Moe	-12100
▁Most	-12101
▁Sock	-12102
▁hairbrush	-12103
▁grumpiness	-12104
▁wonderland	-12105
lost	-12106
▁Heel	-12107
▁tock	-12108
▁Angie	-12109
▁Angela	-12110
▁Bailey	-12111
▁evenly	-12112
▁pranks	-12113
▁sealed	-12114
▁cameras	-12115
▁whining	-12116
▁pew	-12117
Betsy	-12118
▁Isla	-12119
▁silk	-12120
Mother	-12121
▁bangs	-12122
▁brake	-12123
▁Carlos	-12124
▁Chippy	-12125
▁imagin	-12126
▁lowers	-12127
▁sandals	-12128
▁creaking	-12129
▁Him	-12130
▁poof	-12131
talkie	-12132
checked	-12133
▁Fierce	-12134
▁typing	-12135
▁boulder	-12136
▁cleanest	-12137
▁securely	-12138
▁stations	-12139
▁Oct	-12140
▁frag	-12141
▁Boots	-12142
▁Worry	-12143
▁gloom	-12144
▁locket	-12145
▁artists	-12146
▁kernels	-12147
▁hungrier	-12148
▁briefcase	-12149
▁preferred	-12150
▁spiderweb	-12151
▁zigzagging	-12152
▁stubbornness	-12153
▁Stu	-12154
Freddy	-12155
Whoever	-12156
▁feature	-12157
▁fishbowl	-12158
▁grumpier	-12159
▁relation	-12160
▁thousand	-12161
hh	-12162
new	-12163
Baby	-12164
▁Tink	-12165
verance	-12166
▁Alison	-12167
▁ferris	-12168
▁gadgets	-12169
▁beehives	-12170
▁sounding	-12171
▁steaming	-12172
nch	-12173
Snap	-12174
mers	-12175
toes	-12176
wine	-12177
▁Col	-12178
abeth	-12179
aming	-12180
▁Sack	-12181
▁untw	-12182
market	-12183
▁Jemma	-12184
▁advis	-12185
▁Making	-12186
angerous	-12187
▁nestled	-12188
▁mermaids	-12189
▁Elizabeth	-12190
▁basketballs	-12191
vo	-12192
jamin	-12193
minded	-12194
▁mitts	-12195
riginal	-12196
▁shaved	-12197
▁Charles	-12198
▁bullets	-12199
▁casting	-12200
▁clutched	-12201
▁stressed	-12202
▁perseverance	-12203
eline	-12204
▁Fuzz	-12205
▁uneasy	-12206
▁mirrors	-12207
▁proceed	-12208
▁Flexible	-12209
▁supermarket	-12210
▁pec	-12211
▁unb	-12212
Birds	-12213
▁wavy	-12214
Bessie	-12215
master	-12216
▁Guess	-12217
▁daycare	-12218
▁demands	-12219
▁existed	-12220
▁scribble	-12221
▁octopuses	-12222
ya	-12223
ald	-12224
ika	-12225
Oink	-12226
▁kiw	-12227
▁dates	-12228
▁gorge	-12229
▁Flying	-12230
▁fading	-12231
▁speeds	-12232
▁Squeeze	-12233
▁kidding	-12234
bber	-12235
▁publ	-12236
flowed	-12237
▁Wilma	-12238
▁stead	-12239
▁pickle	-12240
▁Benjamin	-12241
▁position	-12242
▁overflowed	-12243
▁contentment	-12244
Tre	-12245
▁Ly	-12246
about	-12247
▁Mara	-12248
ivated	-12249
▁Catch	-12250
▁drags	-12251
▁frant	-12252
▁greed	-12253
▁forces	-12254
▁sacked	-12255
▁greener	-12256
▁keyboard	-12257
▁apologizing	-12258
rer	-12259
fant	-12260
Spark	-12261
opera	-12262
▁Milk	-12263
▁Count	-12264
▁Croco	-12265
▁Laure	-12266
▁Smokey	-12267
▁huffed	-12268
▁ironed	-12269
nyard	-12270
▁Hugs	-12271
▁Peek	-12272
▁Ellen	-12273
▁Wheee	-12274
▁cases	-12275
▁Bubble	-12276
▁Bumble	-12277
▁bulldo	-12278
▁smarts	-12279
▁wisest	-12280
▁insides	-12281
▁itching	-12282
▁richest	-12283
▁barnyard	-12284
Ble	-12285
open	-12286
igher	-12287
uliar	-12288
Monkey	-12289
▁Steph	-12290
▁bases	-12291
▁coast	-12292
▁Cookie	-12293
▁darted	-12294
▁newest	-12295
▁smudged	-12296
▁droplets	-12297
▁gorgeous	-12298
▁peculiar	-12299
shes	-12300
happy	-12301
▁cabb	-12302
▁curves	-12303
▁mowing	-12304
▁Grizzly	-12305
▁Tornado	-12306
▁intentions	-12307
▁somersault	-12308
EE	-12309
aya	-12310
law	-12311
pre	-12312
▁Nia	-12313
aging	-12314
▁elder	-12315
▁Apples	-12316
▁jogger	-12317
▁parting	-12318
▁Passport	-12319
▁haystack	-12320
▁Ca	-12321
Exit	-12322
▁Bat	-12323
▁Call	-12324
▁Toni	-12325
▁Dolphin	-12326
▁distress	-12327
▁scuttled	-12328
▁complicated	-12329
▁pry	-12330
icals	-12331
▁None	-12332
▁rasp	-12333
▁lawnm	-12334
grandma	-12335
▁sniffling	-12336
▁Box	-12337
▁Chomp	-12338
▁Think	-12339
▁Jellie	-12340
▁Skippy	-12341
▁Turkey	-12342
▁Halfway	-12343
▁Popcorn	-12344
▁combined	-12345
▁commands	-12346
vie	-12347
▁Ign	-12348
▁cools	-12349
▁curls	-12350
History	-12351
▁hopper	-12352
▁scraps	-12353
▁racecar	-12354
▁chemicals	-12355
▁lawnmower	-12356
olo	-12357
tale	-12358
Sunny	-12359
▁Marty	-12360
▁drunk	-12361
▁Melody	-12362
▁Nearby	-12363
▁cranky	-12364
▁tickly	-12365
▁glimpse	-12366
▁crunching	-12367
Win	-12368
raph	-12369
Throw	-12370
stage	-12371
edience	-12372
▁Flower	-12373
▁battles	-12374
▁cabbage	-12375
▁sibling	-12376
▁chimneys	-12377
▁quarrelled	-12378
AR	-12379
▁Sa	-12380
rite	-12381
umph	-12382
▁hey	-12383
Blech	-12384
tract	-12385
▁Bring	-12386
▁option	-12387
▁blessed	-12388
▁allergies	-12389
▁qualities	-12390
▁carelessly	-12391
▁hurricanes	-12392
AP	-12393
ico	-12394
▁hy	-12395
▁mini	-12396
▁House	-12397
▁Marcy	-12398
▁banks	-12399
ushroom	-12400
▁session	-12401
▁Slowpoke	-12402
▁wasteful	-12403
▁sunburned	-12404
reme	-12405
▁Lex	-12406
oodle	-12407
▁coax	-12408
umbles	-12409
▁shades	-12410
oceroses	-12411
▁spreads	-12412
▁Reindeer	-12413
▁cartwheel	-12414
▁afternoons	-12415
Mix	-12416
Spe	-12417
upp	-12418
Love	-12419
stem	-12420
▁Ivy	-12421
pilot	-12422
lantern	-12423
▁Nathan	-12424
▁Pastel	-12425
▁illness	-12426
▁spitting	-12427
▁bulldozer	-12428
bike	-12429
iped	-12430
Wheee	-12431
▁public	-12432
▁Buttons	-12433
▁vendors	-12434
▁particip	-12435
▁unfreeze	-12436
▁struggles	-12437
riet	-12438
umsy	-12439
▁Work	-12440
▁toot	-12441
▁mules	-12442
applaud	-12443
▁hooked	-12444
▁haunted	-12445
important	-12446
▁decrease	-12447
▁fairytale	-12448
Act	-12449
Cow	-12450
alia	-12451
▁Nat	-12452
▁Also	-12453
▁alph	-12454
▁cack	-12455
▁Neither	-12456
▁extreme	-12457
▁lioness	-12458
▁praises	-12459
▁fortunate	-12460
▁fulfilled	-12461
App	-12462
lude	-12463
▁Dash	-12464
▁Guns	-12465
▁Mond	-12466
▁Soup	-12467
▁hasn	-12468
▁rung	-12469
▁elbows	-12470
▁crashes	-12471
▁jingled	-12472
▁insistent	-12473
▁unhealthy	-12474
abet	-12475
reak	-12476
Water	-12477
▁Pump	-12478
ertime	-12479
▁moose	-12480
▁Months	-12481
▁chugga	-12482
▁eleven	-12483
▁habitat	-12484
▁hovered	-12485
▁totally	-12486
abracadabra	-12487
Grab	-12488
shoot	-12489
▁Four	-12490
▁Hood	-12491
▁Manny	-12492
▁beams	-12493
▁paste	-12494
▁pawed	-12495
▁tread	-12496
▁Janice	-12497
▁Monica	-12498
▁belief	-12499
▁Balloon	-12500
▁earring	-12501
▁drumming	-12502
▁lovingly	-12503
▁silliest	-12504
▁proceeded	-12505
▁wheelchair	-12506
▁thoughtfulness	-12507
lect	-12508
▁Food	-12509
▁Melty	-12510
▁conso	-12511
▁halls	-12512
▁Lumber	-12513
▁Strong	-12514
▁robbed	-12515
▁bubbled	-12516
▁violins	-12517
expensive	-12518
▁Monsters	-12519
▁alphabet	-12520
ok	-12521
▁Goo	-12522
▁coz	-12523
▁gut	-12524
▁Beet	-12525
▁Drop	-12526
▁Seal	-12527
ercise	-12528
ointed	-12529
▁Mason	-12530
▁Nellie	-12531
▁granny	-12532
▁leaders	-12533
▁trudged	-12534
▁normally	-12535
▁shuffled	-12536
▁thankfully	-12537
sized	-12538
▁Prun	-12539
▁Wine	-12540
▁ogre	-12541
▁bounded	-12542
▁funnier	-12543
▁stunned	-12544
▁biscuits	-12545
▁heartbeat	-12546
▁victorious	-12547
eral	-12548
grand	-12549
otions	-12550
▁slams	-12551
ancient	-12552
▁Hanger	-12553
▁Lauren	-12554
▁Safety	-12555
▁playmate	-12556
▁squashed	-12557
▁wrinkles	-12558
▁summertime	-12559
gedy	-12560
oria	-12561
orig	-12562
▁carp	-12563
▁Louie	-12564
▁Disapp	-12565
▁Dreams	-12566
▁Infant	-12567
▁Justin	-12568
▁former	-12569
original	-12570
▁English	-12571
▁bonfire	-12572
▁emptied	-12573
▁erupting	-12574
▁hydrated	-12575
▁traveler	-12576
▁cauliflowers	-12577
two	-12578
Hide	-12579
Over	-12580
Pipp	-12581
▁Ped	-12582
▁owe	-12583
Spike	-12584
▁mops	-12585
▁sons	-12586
▁yelps	-12587
▁fidget	-12588
▁Dinosaur	-12589
▁goldfish	-12590
▁stranded	-12591
▁addressed	-12592
▁shimmered	-12593
▁treadmill	-12594
▁challenging	-12595
acul	-12596
▁Cal	-12597
▁beeps	-12598
▁ditch	-12599
▁excuse	-12600
▁french	-12601
▁Richard	-12602
▁Writing	-12603
▁emotions	-12604
▁achieving	-12605
▁extremely	-12606
▁concentrated	-12607
Sir	-12608
give	-12609
sery	-12610
▁Spl	-12611
▁Hand	-12612
▁Wind	-12613
▁joys	-12614
▁posed	-12615
▁whizz	-12616
▁Pigeon	-12617
▁Shampoo	-12618
▁carpets	-12619
▁gliding	-12620
▁screech	-12621
▁motorbike	-12622
?,"	-12623
Del	-12624
▁foss	-12625
number	-12626
▁cawed	-12627
▁subst	-12628
▁Easter	-12629
▁quiver	-12630
▁Sweetie	-12631
▁swatted	-12632
▁trainer	-12633
▁pinwheel	-12634
axi	-12635
Shut	-12636
ords	-12637
nives	-12638
▁High	-12639
▁fists	-12640
▁repres	-12641
▁compost	-12642
▁involve	-12643
▁collapse	-12644
▁hairband	-12645
▁journals	-12646
▁warriors	-12647
▁journeyed	-12648
▁squawking	-12649
▁Dictionary	-12650
▁stubbornly	-12651
Fun	-12652
Nemo	-12653
▁Bus	-12654
▁cann	-12655
▁jugs	-12656
▁pals	-12657
▁plun	-12658
Stupid	-12659
▁benef	-12660
▁Cactus	-12661
▁Clumsy	-12662
▁sizzle	-12663
▁spinner	-12664
▁timidly	-12665
▁motioned	-12666
▁inspiration	-12667
▁performances	-12668
anas	-12669
Alice	-12670
Peter	-12671
▁Much	-12672
▁herd	-12673
▁tack	-12674
fashion	-12675
▁sorrow	-12676
▁merrier	-12677
▁nursery	-12678
▁warming	-12679
▁cleverest	-12680
spass	-12681
▁Rocks	-12682
ference	-12683
▁measures	-12684
Pop	-12685
▁Ada	-12686
essor	-12687
▁Avoc	-12688
▁Great	-12689
▁murky	-12690
▁posts	-12691
▁sevent	-12692
▁lightbul	-12693
▁painters	-12694
▁treating	-12695
▁whooshing	-12696
▁frantically	-12697
cst	-12698
than	-12699
Pause	-12700
▁Becca	-12701
▁Merry	-12702
▁Stick	-12703
▁Edward	-12704
▁Polite	-12705
▁cookbook	-12706
Caw	-12707
arch	-12708
atue	-12709
ounds	-12710
spicy	-12711
▁Jules	-12712
▁moldy	-12713
▁marvel	-12714
▁discount	-12715
▁Disappointed	-12716
Bel	-12717
Bub	-12718
Sus	-12719
haw	-12720
haps	-12721
▁voy	-12722
Match	-12723
▁Jade	-12724
Pretty	-12725
▁Shall	-12726
▁Monday	-12727
▁Sister	-12728
▁Winnie	-12729
▁Flipper	-12730
▁shrugging	-12731
▁squirming	-12732
▁roundabout	-12733
▁imaginative	-12734
ape	-12735
▁Ari	-12736
▁Gas	-12737
Yield	-12738
▁Real	-12739
▁dash	-12740
Cheese	-12741
aitlyn	-12742
vation	-12743
isingly	-12744
▁Marcus	-12745
▁hating	-12746
▁holder	-12747
▁triumph	-12748
▁pressure	-12749
▁numbering	-12750
help	-12751
enter	-12752
▁ecst	-12753
ancing	-12754
▁Party	-12755
▁Skull	-12756
▁Worms	-12757
▁clung	-12758
▁crows	-12759
▁revved	-12760
▁saucers	-12761
▁Mechanic	-12762
▁vanishing	-12763
▁delightful	-12764
mores	-12765
▁Lime	-12766
▁balm	-12767
raying	-12768
▁Round	-12769
▁Wanda	-12770
▁brist	-12771
▁tulip	-12772
▁Tinker	-12773
▁feared	-12774
▁sugary	-12775
▁anthill	-12776
▁capable	-12777
▁dinners	-12778
▁grumpily	-12779
▁quarrels	-12780
▁elevators	-12781
▁practising	-12782
▁ko	-12783
▁Rhy	-12784
▁pod	-12785
asons	-12786
▁Octo	-12787
▁cure	-12788
▁rugs	-12789
▁digger	-12790
▁garlic	-12791
Dangerous	-12792
▁clicking	-12793
▁Spaghetti	-12794
▁sharpener	-12795
NAP	-12796
Rel	-12797
pie	-12798
▁CRA	-12799
▁Boris	-12800
▁cents	-12801
▁demon	-12802
▁farmy	-12803
▁starry	-12804
▁resumed	-12805
▁recycling	-12806
Bow	-12807
yer	-12808
Tina	-12809
iged	-12810
Girls	-12811
▁sips	-12812
olcano	-12813
▁Hooty	-12814
▁ecstatic	-12815
▁farmyard	-12816
▁grinning	-12817
▁headband	-12818
▁tricking	-12819
▁milkshake	-12820
▁planetarium	-12821
▁Surprisingly	-12822
uri	-12823
▁Diana	-12824
▁calms	-12825
▁strut	-12826
▁Trixie	-12827
▁outing	-12828
▁serves	-12829
▁toughest	-12830
▁nighttime	-12831
bat	-12832
nut	-12833
top	-12834
elle	-12835
pass	-12836
rive	-12837
▁Fan	-12838
Spicy	-12839
▁Lexi	-12840
▁axes	-12841
▁rosy	-12842
▁doubt	-12843
▁hunts	-12844
▁Tomato	-12845
▁yachts	-12846
▁Mailman	-12847
▁carrier	-12848
▁flooding	-12849
▁backstage	-12850
▁lightbulb	-12851
▁propeller	-12852
Dis	-12853
Toy	-12854
Lion	-12855
▁Abb	-12856
▁Anty	-12857
▁Opera	-12858
▁menus	-12859
▁butcher	-12860
Po	-12861
ST	-12862
!,"	-12863
New	-12864
baa	-12865
bags	-12866
magic	-12867
▁gobl	-12868
oxygen	-12869
▁Ethan	-12870
▁Marco	-12871
▁Having	-12872
▁ducked	-12873
▁blossom	-12874
▁dribble	-12875
▁obliged	-12876
▁steadily	-12877
Bra	-12878
ifted	-12879
uckle	-12880
▁Tall	-12881
▁Wild	-12882
▁Wormy	-12883
▁curry	-12884
▁Repeat	-12885
▁watery	-12886
▁blended	-12887
▁demonstr	-12888
▁teammates	-12889
gies	-12890
chers	-12891
oured	-12892
▁sobs	-12893
▁Leafy	-12894
▁adver	-12895
▁closest	-12896
▁inspect	-12897
▁fastened	-12898
▁puckered	-12899
▁subtract	-12900
▁Adventure	-12901
ggo	-12902
hne	-12903
aphne	-12904
paper	-12905
▁Joel	-12906
▁Poke	-12907
izards	-12908
▁Piper	-12909
▁wildly	-12910
▁Painter	-12911
▁arrival	-12912
▁gumball	-12913
▁squeaks	-12914
▁meantime	-12915
▁accessory	-12916
▁inspected	-12917
▁ambulances	-12918
Mrs	-12919
spe	-12920
who	-12921
yum	-12922
Life	-12923
tick	-12924
tweet	-12925
▁exist	-12926
▁ponds	-12927
▁Switch	-12928
▁meaner	-12929
▁bristles	-12930
for	-12931
Mmmm	-12932
Young	-12933
▁Cont	-12934
ricket	-12935
▁Snappy	-12936
▁ladies	-12937
▁leaked	-12938
▁Ashtray	-12939
▁contentedly	-12940
iddy	-12941
▁Com	-12942
▁Seat	-12943
▁core	-12944
▁requ	-12945
▁thaw	-12946
itters	-12947
▁Woody	-12948
▁tiles	-12949
Teacher	-12950
▁Daphne	-12951
▁safest	-12952
▁voyage	-12953
▁Chicken	-12954
▁nuzzles	-12955
▁Mushroom	-12956
▁Chocolate	-12957
▁croissant	-12958
▁drumsticks	-12959
Ab	-12960
pair	-12961
Granny	-12962
stream	-12963
▁Dovey	-12964
▁curved	-12965
▁skunks	-12966
▁flushed	-12967
▁reasons	-12968
▁displays	-12969
▁villains	-12970
▁strolling	-12971
▁overcoming	-12972
Math	-12973
▁Eli	-12974
liest	-12975
▁Save	-12976
▁dart	-12977
▁icicle	-12978
▁system	-12979
▁ignores	-12980
▁detectives	-12981
▁rhinoceroses	-12982
Pet	-12983
Ding	-12984
inkly	-12985
▁Glass	-12986
▁moist	-12987
▁Mousey	-12988
▁chests	-12989
▁Jumping	-12990
▁tougher	-12991
occo	-12992
zero	-12993
▁Erin	-12994
▁Marl	-12995
▁Minty	-12996
▁Bright	-12997
▁Snakes	-12998
▁teacup	-12999
▁console	-13000
▁preference	-13001
cha	-13002
Toby	-13003
▁Nap	-13004
▁Oat	-13005
▁Ter	-13006
▁Hugo	-13007
▁Ringo	-13008
▁punch	-13009
▁spied	-13010
▁inched	-13011
▁Stephen	-13012
▁grunted	-13013
▁shoebox	-13014
▁mentioning	-13015
▁splattered	-13016
iko	-13017
Race	-13018
ooke	-13019
▁Cel	-13020
▁Mud	-13021
overs	-13022
▁Cora	-13023
▁July	-13024
▁Lying	-13025
▁drained	-13026
▁swerved	-13027
▁cavities	-13028
ams	-13029
aze	-13030
▁mums	-13031
alling	-13032
▁Brooke	-13033
▁cities	-13034
▁pumped	-13035
▁Bethany	-13036
▁flicked	-13037
▁slowing	-13038
ependable	-13039
▁operator	-13040
▁Intrigued	-13041
▁replacement	-13042
sel	-13043
yay	-13044
rich	-13045
▁gown	-13046
▁kiwi	-13047
Sounds	-13048
▁Doggo	-13049
▁Swing	-13050
▁plums	-13051
▁replies	-13052
▁slurped	-13053
▁adjusted	-13054
▁sentence	-13055
▁stunning	-13056
▁profession	-13057
now	-13058
Joey	-13059
there	-13060
▁Cale	-13061
ilizer	-13062
person	-13063
▁Bears	-13064
Tweetie	-13065
▁Statue	-13066
▁betray	-13067
▁hermit	-13068
▁parach	-13069
▁trades	-13070
▁History	-13071
▁Winning	-13072
▁liquids	-13073
▁preferences	-13074
Star	-13075
well	-13076
▁Gaby	-13077
▁numb	-13078
▁Piney	-13079
▁gnome	-13080
▁leaky	-13081
▁ruins	-13082
ictable	-13083
▁Walter	-13084
▁advert	-13085
▁hunted	-13086
▁violet	-13087
▁Matches	-13088
▁Penguin	-13089
▁distracting	-13090
▁cy	-13091
Rose	-13092
arty	-13093
irus	-13094
▁bol	-13095
▁Anya	-13096
▁Miles	-13097
▁swell	-13098
ractice	-13099
▁Junior	-13100
▁layers	-13101
▁endless	-13102
▁tragedy	-13103
▁Patience	-13104
▁rattling	-13105
▁clubhouse	-13106
▁hairstyle	-13107
▁obedience	-13108
▁priceless	-13109
▁reminders	-13110
▁flickering	-13111
ilst	-13112
irly	-13113
ouble	-13114
▁pest	-13115
▁Fruit	-13116
▁memor	-13117
▁scarfs	-13118
Actually	-13119
▁flopped	-13120
dangerous	-13121
▁descended	-13122
▁accidently	-13123
▁creatively	-13124
La	-13125
rex	-13126
woof	-13127
▁sul	-13128
emons	-13129
▁Golf	-13130
▁dism	-13131
▁pier	-13132
polish	-13133
▁Novel	-13134
▁ident	-13135
▁minty	-13136
▁swift	-13137
▁Jasper	-13138
▁Police	-13139
▁jersey	-13140
▁snorts	-13141
▁ticked	-13142
▁unpred	-13143
uriosity	-13144
▁unravel	-13145
▁arriving	-13146
▁brownies	-13147
▁coolness	-13148
▁provides	-13149
Ign	-13150
Ted	-13151
pri	-13152
Sing	-13153
Stir	-13154
hide	-13155
▁sid	-13156
▁yay	-13157
arked	-13158
▁Rude	-13159
▁SNAP	-13160
▁foil	-13161
▁brats	-13162
▁limit	-13163
▁Rhythm	-13164
▁leashes	-13165
▁whimper	-13166
▁admitting	-13167
▁harvested	-13168
▁seatbelts	-13169
▁compliments	-13170
▁unpredictable	-13171
arr	-13172
urf	-13173
Park	-13174
▁ted	-13175
Lemon	-13176
▁trays	-13177
▁veils	-13178
▁screec	-13179
▁stuffy	-13180
▁Fireworks	-13181
▁superstar	-13182
▁matchstick	-13183
POP	-13184
ayed	-13185
▁poo	-13186
▁Nosy	-13187
▁moss	-13188
ferent	-13189
▁Pedro	-13190
▁badges	-13191
▁bumble	-13192
▁golfer	-13193
▁kettle	-13194
▁mopped	-13195
▁prepar	-13196
▁tidier	-13197
▁copying	-13198
▁fluffed	-13199
▁Children	-13200
▁Dolphins	-13201
▁ashtrays	-13202
▁recordings	-13203
Mail	-13204
fake	-13205
pher	-13206
▁cit	-13207
▁spa	-13208
udges	-13209
▁auth	-13210
▁Ruffy	-13211
▁Snail	-13212
▁weakly	-13213
▁Melanie	-13214
▁Pumpkin	-13215
▁lunches	-13216
▁avoiding	-13217
▁cleverly	-13218
▁clutching	-13219
▁professor	-13220
▁waistband	-13221
Gigi	-13222
anked	-13223
three	-13224
▁Hanna	-13225
▁Rocco	-13226
▁virus	-13227
▁Disney	-13228
▁budget	-13229
▁pruned	-13230
▁stalls	-13231
▁steamy	-13232
ifferent	-13233
▁outdoor	-13234
▁horrified	-13235
▁predators	-13236
Butterflies	-13237
▁disobeying	-13238
▁misbehaving	-13239
▁resourceful	-13240
De	-13241
Hot	-13242
aylee	-13243
▁Shop	-13244
▁fres	-13245
▁role	-13246
iverse	-13247
▁Going	-13248
▁Lance	-13249
▁beats	-13250
▁Maxine	-13251
▁Harriet	-13252
▁paddles	-13253
▁footballs	-13254
Soup	-13255
Susie	-13256
lights	-13257
▁China	-13258
Believe	-13259
▁Trevor	-13260
▁antennae	-13261
▁classmate	-13262
▁dandelion	-13263
▁entertain	-13264
▁grandparent	-13265
▁unimportant	-13266
Betty	-13267
▁figur	-13268
fragile	-13269
▁Tigger	-13270
▁author	-13271
▁jiggle	-13272
▁fulfill	-13273
▁teddies	-13274
▁betrayed	-13275
▁embraced	-13276
roy	-13277
Jazz	-13278
▁sta	-13279
▁Aren	-13280
▁Scott	-13281
▁latch	-13282
▁Alicia	-13283
▁Baking	-13284
▁Harold	-13285
▁Lizard	-13286
▁diaries	-13287
▁croaking	-13288
▁cultures	-13289
▁squeaking	-13290
▁complaints	-13291
sl	-13292
Gas	-13293
Woo	-13294
helle	-13295
▁Rush	-13296
▁Theo	-13297
▁Cubey	-13298
▁packs	-13299
▁silky	-13300
▁tilts	-13301
▁Poison	-13302
▁creaky	-13303
▁terror	-13304
▁advisor	-13305
▁tending	-13306
Chocolate	-13307
uliflower	-13308
▁Michelle	-13309
sst	-13310
ugs	-13311
dern	-13312
▁Ink	-13313
▁Tut	-13314
▁Sold	-13315
▁gods	-13316
▁vers	-13317
keeping	-13318
▁patter	-13319
▁satisf	-13320
rawberry	-13321
▁applied	-13322
▁booming	-13323
▁produce	-13324
▁sizzled	-13325
▁Painting	-13326
▁clucking	-13327
▁carpenter	-13328
▁hopefully	-13329
Jake	-13330
Pink	-13331
aves	-13332
▁Net	-13333
gling	-13334
hoebe	-13335
ivers	-13336
umbly	-13337
▁Sour	-13338
▁laps	-13339
Oxygen	-13340
▁Peach	-13341
▁award	-13342
Rainbow	-13343
▁Beaver	-13344
▁greens	-13345
▁tingly	-13346
▁dislike	-13347
▁refuses	-13348
▁features	-13349
bi	-13350
▁due	-13351
▁Fuel	-13352
▁Bendy	-13353
▁citiz	-13354
▁koala	-13355
osaurus	-13356
▁behold	-13357
▁Grandad	-13358
▁shatter	-13359
▁assistance	-13360
▁Amaz	-13361
▁Pill	-13362
▁heed	-13363
▁tang	-13364
▁Lacey	-13365
▁pouts	-13366
▁surge	-13367
▁techn	-13368
▁Alfred	-13369
▁Debbie	-13370
▁Phoebe	-13371
▁knitted	-13372
uccessful	-13373
▁Watching	-13374
▁slippers	-13375
▁smoothed	-13376
word	-13377
▁nor	-13378
▁dice	-13379
▁fert	-13380
▁fizz	-13381
▁Print	-13382
▁Scary	-13383
▁Throw	-13384
▁Trunk	-13385
▁attend	-13386
▁bakers	-13387
▁piglet	-13388
▁Jackson	-13389
▁Measure	-13390
▁tipping	-13391
▁wildlife	-13392
▁excellent	-13393
▁squishing	-13394
sk	-13395
uggly	-13396
▁Move	-13397
▁cowg	-13398
Mister	-13399
▁Beary	-13400
▁Youth	-13401
▁mazes	-13402
▁ouchie	-13403
▁sunbat	-13404
▁teases	-13405
▁Cooking	-13406
▁erasing	-13407
▁ripping	-13408
▁surfers	-13409
▁jingling	-13410
▁foolishly	-13411
▁reception	-13412
▁boundaries	-13413
▁generations	-13414
Sl	-13415
cuss	-13416
foot	-13417
Lucky	-13418
▁areas	-13419
▁bolts	-13420
▁fifth	-13421
▁forty	-13422
covered	-13423
▁Celery	-13424
▁finder	-13425
▁mothers	-13426
▁collects	-13427
▁snatches	-13428
▁upcoming	-13429
ta	-13430
Toot	-13431
▁Aid	-13432
▁Yog	-13433
Green	-13434
catch	-13435
▁duty	-13436
▁wasp	-13437
elines	-13438
▁Donna	-13439
▁Neigh	-13440
▁Train	-13441
▁puffy	-13442
▁braids	-13443
▁floods	-13444
▁sacrif	-13445
▁storyt	-13446
reliable	-13447
▁adopted	-13448
▁insists	-13449
▁calmness	-13450
▁sidelines	-13451
rove	-13452
▁Leg	-13453
▁ups	-13454
▁Gear	-13455
▁Rest	-13456
▁tarp	-13457
▁Celly	-13458
▁Drake	-13459
▁feeds	-13460
▁stink	-13461
▁swish	-13462
restore	-13463
▁Archie	-13464
▁coughs	-13465
▁stomps	-13466
▁tennis	-13467
▁Contest	-13468
▁visible	-13469
▁Feathers	-13470
▁screeched	-13471
ja	-13472
ific	-13473
▁Oil	-13474
▁Five	-13475
▁bale	-13476
▁owie	-13477
▁tags	-13478
▁Asked	-13479
▁glist	-13480
▁Sailor	-13481
▁sliced	-13482
Princess	-13483
▁Swimming	-13484
▁pedalled	-13485
▁captivated	-13486
OAR	-13487
Doll	-13488
down	-13489
▁Dark	-13490
Froggy	-13491
▁Rhino	-13492
▁drains	-13493
▁jeweler	-13494
▁wizards	-13495
aculously	-13496
▁savoring	-13497
▁Curiosity	-13498
▁safekeeping	-13499
rose	-13500
▁Doc	-13501
Pandy	-13502
▁Grow	-13503
scapes	-13504
▁Bubby	-13505
▁Emmie	-13506
▁rhyme	-13507
▁snows	-13508
▁ginger	-13509
▁magpie	-13510
▁smoked	-13511
▁streak	-13512
▁leaping	-13513
▁sniffles	-13514
▁stumbles	-13515
▁whistler	-13516
▁glistened	-13517
▁nightfall	-13518
En	-13519
LA	-13520
Mo	-13521
nn	-13522
cert	-13523
eers	-13524
▁Mei	-13525
▁Pan	-13526
▁Fast	-13527
Pippin	-13528
eating	-13529
▁Cable	-13530
▁Spray	-13531
▁Stars	-13532
▁rakes	-13533
▁Pistol	-13534
▁bobbed	-13535
▁cliffs	-13536
▁Hearing	-13537
jump	-13538
▁Rod	-13539
▁Tad	-13540
▁tad	-13541
Relax	-13542
▁Seek	-13543
▁spir	-13544
▁Samuel	-13545
▁Running	-13546
▁bedrooms	-13547
▁galaxies	-13548
▁Sunflower	-13549
▁spaceships	-13550
Coco	-13551
atted	-13552
▁Chef	-13553
▁smir	-13554
▁Huggy	-13555
▁Jumbo	-13556
▁Toast	-13557
▁cancel	-13558
▁joyous	-13559
▁produc	-13560
▁chandel	-13561
▁uncover	-13562
▁Original	-13563
▁fearless	-13564
▁greeting	-13565
▁parachute	-13566
▁trumpeted	-13567
▁landscapes	-13568
▁salesperson	-13569
ssssssssssssssss	-13570
▁oo	-13571
▁Happ	-13572
ainted	-13573
▁Forky	-13574
▁ouchy	-13575
▁Freeze	-13576
▁coiled	-13577
▁unison	-13578
▁washer	-13579
▁kickball	-13580
Mil	-13581
▁ske	-13582
weigh	-13583
▁Team	-13584
▁Tabby	-13585
▁dials	-13586
▁pluck	-13587
▁goblin	-13588
▁growth	-13589
spassing	-13590
▁Cricket	-13591
▁modestly	-13592
▁ir	-13593
chor	-13594
▁cab	-13595
▁fry	-13596
▁sap	-13597
▁Juan	-13598
▁Nell	-13599
▁Owen	-13600
▁intr	-13601
▁pang	-13602
▁quen	-13603
▁Baker	-13604
▁Pippy	-13605
▁slaps	-13606
▁batted	-13607
▁neater	-13608
▁radios	-13609
▁rarely	-13610
▁Heather	-13611
▁anchors	-13612
▁crackle	-13613
▁padlock	-13614
▁snuggly	-13615
▁breathes	-13616
▁glinting	-13617
▁tiredness	-13618
Sal	-13619
lli	-13620
Yoga	-13621
back	-13622
rots	-13623
Harry	-13624
▁Sami	-13625
▁Seth	-13626
▁Caleb	-13627
▁retra	-13628
▁south	-13629
▁Gloria	-13630
▁jester	-13631
▁rubble	-13632
▁Avocado	-13633
▁accused	-13634
▁fifteen	-13635
▁quarter	-13636
▁recover	-13637
▁honestly	-13638
▁ringmaster	-13639
▁professional	-13640
Ne	-13641
EEP	-13642
ode	-13643
ooo	-13644
uffs	-13645
▁Reg	-13646
▁pom	-13647
Bring	-13648
▁Home	-13649
▁Itsy	-13650
▁vans	-13651
▁autog	-13652
▁Forest	-13653
▁duster	-13654
▁hobbies	-13655
▁pouting	-13656
▁Surprise	-13657
▁laziness	-13658
▁whipping	-13659
▁whirring	-13660
▁dashboard	-13661
▁thundering	-13662
rol	-13663
Spin	-13664
pler	-13665
▁wars	-13666
▁Celia	-13667
▁Ginny	-13668
▁Peppy	-13669
▁Radio	-13670
▁Raggy	-13671
▁trace	-13672
Release	-13673
certain	-13674
▁Anyone	-13675
▁combin	-13676
▁sauces	-13677
iversary	-13678
▁fortune	-13679
▁persuade	-13680
▁quickest	-13681
▁appearing	-13682
▁Grandmother	-13683
Pete	-13684
orny	-13685
post	-13686
rows	-13687
sure	-13688
▁Rup	-13689
▁Set	-13690
▁zap	-13691
Marry	-13692
▁Cand	-13693
▁cork	-13694
▁dazz	-13695
belief	-13696
ilding	-13697
▁Scare	-13698
▁buyer	-13699
▁delays	-13700
▁rounds	-13701
▁Trouble	-13702
▁wriggle	-13703
▁appropri	-13704
▁autograph	-13705
ixie	-13706
Shoot	-13707
Stand	-13708
whoosh	-13709
▁butts	-13710
niverse	-13711
▁Rupert	-13712
▁grounds	-13713
▁recycle	-13714
▁scanned	-13715
▁believes	-13716
▁hospitals	-13717
▁shoreline	-13718
▁disturbance	-13719
.''	-13720
spo	-13721
via	-13722
grow	-13723
rous	-13724
ulty	-13725
▁dil	-13726
beard	-13727
ragon	-13728
celain	-13729
icense	-13730
rolled	-13731
▁Stacy	-13732
▁ramps	-13733
▁weave	-13734
▁Muscle	-13735
Fighting	-13736
rrrrrrrr	-13737
▁Georgie	-13738
▁bleated	-13739
▁bundled	-13740
▁grownups	-13741
▁massaged	-13742
▁uncertain	-13743
▁containers	-13744
▁somersaults	-13745
Inc	-13746
olk	-13747
Greet	-13748
armed	-13749
ifact	-13750
▁educ	-13751
▁rumm	-13752
Pepper	-13753
orting	-13754
▁glues	-13755
▁pretz	-13756
▁cannon	-13757
▁ravens	-13758
▁sorter	-13759
▁unwell	-13760
▁wilder	-13761
▁Pickles	-13762
▁labeled	-13763
▁pinecones	-13764
Cook	-13765
ront	-13766
Jelly	-13767
▁Lazy	-13768
▁Whip	-13769
▁Paint	-13770
▁lasts	-13771
▁smudge	-13772
▁waists	-13773
▁amounts	-13774
▁wrinkle	-13775
▁crumbled	-13776
▁sheepish	-13777
▁farmhouse	-13778
▁hurriedly	-13779
▁porcelain	-13780
▁zigzagged	-13781
▁fertilizer	-13782
Ru	-13783
pow	-13784
▁ge	-13785
kers	-13786
▁Paw	-13787
▁abs	-13788
Truck	-13789
▁Scar	-13790
▁disp	-13791
Spring	-13792
ionate	-13793
rewell	-13794
▁Flour	-13795
Bubbles	-13796
pitched	-13797
▁fruity	-13798
▁pacing	-13799
Treasure	-13800
▁Standing	-13801
▁artifact	-13802
▁farewell	-13803
▁unscrewed	-13804
Hoo	-13805
ezy	-13806
pot	-13807
van	-13808
▁Aly	-13809
▁Bes	-13810
cheap	-13811
▁Beat	-13812
▁oily	-13813
▁saws	-13814
Nobody	-13815
ambers	-13816
eteria	-13817
▁angle	-13818
▁email	-13819
▁Lawyer	-13820
▁Smiley	-13821
▁gluing	-13822
▁losers	-13823
▁lowest	-13824
▁bobbing	-13825
▁funeral	-13826
▁clipboard	-13827
▁Tinkerbell	-13828
▁participate	-13829
God	-13830
gnes	-13831
▁Aut	-13832
▁mas	-13833
▁Indy	-13834
▁bust	-13835
▁mash	-13836
▁Paper	-13837
▁Touch	-13838
retched	-13839
▁alarms	-13840
▁syring	-13841
▁archery	-13842
▁guiding	-13843
▁scrapes	-13844
▁wetness	-13845
▁cafeteria	-13846
▁disbelief	-13847
toot	-13848
Puppy	-13849
▁Clap	-13850
▁Flex	-13851
▁monk	-13852
▁elves	-13853
▁Rubber	-13854
▁expired	-13855
▁version	-13856
▁engineer	-13857
▁gleaming	-13858
▁wondrous	-13859
▁anniversary	-13860
itor	-13861
rial	-13862
▁Cup	-13863
▁Tag	-13864
erous	-13865
Before	-13866
▁Beepy	-13867
▁sixty	-13868
▁stock	-13869
▁Juliet	-13870
▁origin	-13871
▁refere	-13872
▁tumble	-13873
▁benefit	-13874
▁closets	-13875
▁desires	-13876
▁syringe	-13877
▁chambers	-13878
▁stinging	-13879
▁swimmers	-13880
▁impatience	-13881
NO	-13882
dges	-13883
▁ton	-13884
icier	-13885
▁aler	-13886
▁germ	-13887
▁Lunch	-13888
▁outst	-13889
ibility	-13890
▁woolly	-13891
▁fetches	-13892
▁cheesebur	-13893
▁smoothies	-13894
▁hesitantly	-13895
▁Reluctantly	-13896
arma	-13897
aste	-13898
azzy	-13899
ians	-13900
uiet	-13901
▁dun	-13902
▁gnaw	-13903
▁rejo	-13904
▁Agnes	-13905
▁arose	-13906
▁reeds	-13907
▁Reggie	-13908
▁burial	-13909
▁buzzes	-13910
▁shoved	-13911
▁uneven	-13912
kerchief	-13913
▁directly	-13914
▁shortcuts	-13915
▁whimpering	-13916
▁appearances	-13917
▁handkerchief	-13918
▁outstretched	-13919
hop	-13920
tac	-13921
berg	-13922
dead	-13923
▁tit	-13924
▁Biff	-13925
idered	-13926
▁Cross	-13927
▁Scale	-13928
▁Windy	-13929
ergency	-13930
▁BaaBaa	-13931
Anything	-13932
▁raccoons	-13933
▁convincing	-13934
▁appreciating	-13935
▁underestimated	-13936
Pay	-13937
Hoot	-13938
Psst	-13939
▁zig	-13940
▁East	-13941
▁sele	-13942
▁Eagle	-13943
▁Dennis	-13944
▁ponder	-13945
onscious	-13946
▁Waddles	-13947
▁scooted	-13948
▁confront	-13949
▁fighters	-13950
▁mightier	-13951
▁Stephanie	-13952
▁persisted	-13953
▁sensitive	-13954
▁microphones	-13955
pom	-13956
Lola	-13957
tery	-13958
comes	-13959
▁Fork	-13960
▁skept	-13961
▁soaps	-13962
▁spout	-13963
ization	-13964
▁Humble	-13965
▁Seagull	-13966
▁iceberg	-13967
▁schools	-13968
Greetings	-13969
▁blessing	-13970
▁password	-13971
▁stamping	-13972
▁Squeakers	-13973
▁littering	-13974
▁patterned	-13975
▁strangely	-13976
ji	-13977
ton	-13978
mary	-13979
▁wed	-13980
uable	-13981
▁Amer	-13982
▁Dust	-13983
▁Yuck	-13984
▁curb	-13985
▁defl	-13986
▁gymn	-13987
▁Misty	-13988
▁dilig	-13989
▁opener	-13990
▁prized	-13991
▁skated	-13992
▁payment	-13993
▁squatted	-13994
▁marveling	-13995
?'.	-13996
asey	-13997
have	-13998
nock	-13999
nter	-14000
rack	-14001
Pinky	-14002
obble	-14003
▁Dawn	-14004
▁Petal	-14005
▁chief	-14006
▁graze	-14007
▁leafy	-14008
▁reefs	-14009
▁sched	-14010
▁Lastly	-14011
▁youths	-14012
▁outcomes	-14013
▁Alligators	-14014
▁Helicopter	-14015
▁Mosquitoes	-14016
Bees	-14017
dong	-14018
erie	-14019
▁Tam	-14020
quack	-14021
Closed	-14022
splash	-14023
▁Squir	-14024
▁hedges	-14025
▁mended	-14026
▁untidy	-14027
▁Carrots	-14028
▁referee	-14029
▁deserted	-14030
▁flavours	-14031
▁unharmed	-14032
▁bumblebee	-14033
▁confessed	-14034
▁education	-14035
▁glimmered	-14036
▁leftovers	-14037
▁mechanics	-14038
▁reflecting	-14039
▁disagreements	-14040
Son	-14041
▁yo	-14042
ashy	-14043
▁arc	-14044
pherd	-14045
▁Eggy	-14046
▁Frogs	-14047
▁Heart	-14048
▁Jesse	-14049
▁Muffy	-14050
▁Paige	-14051
▁Stone	-14052
▁chant	-14053
increase	-14054
▁clumsiness	-14055
▁croissants	-14056
▁flexibility	-14057
▁Snee	-14058
▁moan	-14059
Auntie	-14060
icycle	-14061
▁decre	-14062
▁handc	-14063
▁Beetle	-14064
▁Cassie	-14065
▁cupped	-14066
▁tulips	-14067
▁buttery	-14068
▁confron	-14069
▁recited	-14070
▁shimmer	-14071
▁shooter	-14072
▁craziest	-14073
▁markings	-14074
▁squiggly	-14075
▁sacrifice	-14076
Ho	-14077
ican	-14078
▁Lara	-14079
▁Wanna	-14080
▁tangy	-14081
▁Trying	-14082
▁pharma	-14083
▁faucets	-14084
▁hooting	-14085
▁screwed	-14086
▁Wherever	-14087
▁faithful	-14088
▁shepherd	-14089
▁vacuumed	-14090
university	-14091
▁difficulty	-14092
▁conditioning	-14093
ANG	-14094
pee	-14095
▁rum	-14096
▁Oaky	-14097
▁lass	-14098
▁yeah	-14099
▁Chalk	-14100
▁Story	-14101
▁Anchor	-14102
▁Philip	-14103
▁meteor	-14104
ilarious	-14105
shadowing	-14106
▁barefoot	-14107
▁suitable	-14108
▁thousands	-14109
▁considered	-14110
▁Na	-14111
▁ut	-14112
Could	-14113
▁Abbi	-14114
▁BOOM	-14115
▁Foot	-14116
▁Mika	-14117
▁mult	-14118
▁plea	-14119
jected	-14120
▁Crazy	-14121
▁Sissy	-14122
▁Mollie	-14123
▁antics	-14124
▁therap	-14125
▁cookout	-14126
▁villager	-14127
▁hilarious	-14128
▁confronted	-14129
▁cheeseburger	-14130
!''	-14131
four	-14132
▁Cur	-14133
▁Nod	-14134
▁Beak	-14135
▁tamb	-14136
▁Donny	-14137
▁Steam	-14138
▁Swans	-14139
▁Leaves	-14140
▁Sylvia	-14141
▁client	-14142
▁croaks	-14143
▁Smiling	-14144
▁chuckle	-14145
▁divided	-14146
▁fainted	-14147
▁juggled	-14148
▁tambour	-14149
▁Beatrice	-14150
▁Thinking	-14151
▁figurine	-14152
▁Squirrels	-14153
▁beekeeper	-14154
▁swallowing	-14155
▁supervision	-14156
▁distractions	-14157
▁accomplishments	-14158
IT	-14159
mi	-14160
Pol	-14161
sun	-14162
aron	-14163
clap	-14164
ryer	-14165
▁Bal	-14166
▁Spy	-14167
amous	-14168
▁Band	-14169
▁Hard	-14170
▁pure	-14171
▁virt	-14172
▁Bobbi	-14173
▁CRASH	-14174
▁plump	-14175
▁whips	-14176
▁cooing	-14177
▁Miranda	-14178
▁echoing	-14179
▁pasture	-14180
▁bragging	-14181
▁stroking	-14182
▁Disneyland	-14183
acky	-14184
dled	-14185
Grace	-14186
Olive	-14187
▁Cowy	-14188
▁Fine	-14189
▁mant	-14190
▁rese	-14191
▁Socks	-14192
iscilla	-14193
▁Tigers	-14194
▁angles	-14195
▁splits	-14196
▁Madeline	-14197
▁frighten	-14198
▁muttered	-14199
▁spiciest	-14200
▁arguments	-14201
ivy	-14202
Dogs	-14203
ires	-14204
isky	-14205
▁Arm	-14206
▁Pal	-14207
▁inh	-14208
idden	-14209
▁Cory	-14210
Helping	-14211
▁Cloudy	-14212
▁Danger	-14213
▁camels	-14214
▁enters	-14215
▁neared	-14216
▁selves	-14217
coloured	-14218
egetable	-14219
▁admires	-14220
▁comment	-14221
▁Skipping	-14222
▁snarling	-14223
▁Gradually	-14224
▁Priscilla	-14225
▁Surrender	-14226
▁untouched	-14227
▁originally	-14228
Fuel	-14229
otor	-14230
▁Jem	-14231
Cluck	-14232
ander	-14233
▁ruby	-14234
lessly	-14235
▁Ahead	-14236
▁Dolls	-14237
▁frost	-14238
▁rafts	-14239
▁sunbe	-14240
▁Clever	-14241
▁purses	-14242
▁wailed	-14243
Lemonade	-14244
▁critter	-14245
▁nibbles	-14246
▁dislikes	-14247
▁arranging	-14248
▁calendars	-14249
▁chalkboard	-14250
▁sharpening	-14251
yo	-14252
kest	-14253
ented	-14254
▁Clar	-14255
▁Cody	-14256
▁Marc	-14257
▁Crush	-14258
▁Smile	-14259
▁cargo	-14260
▁unfro	-14261
▁Fridge	-14262
▁Lillie	-14263
▁cocked	-14264
▁strand	-14265
▁Tonight	-14266
▁origami	-14267
▁yogurts	-14268
▁bookstore	-14269
▁eagerness	-14270
▁demonstrated	-14271
Ar	-14272
fun	-14273
ini	-14274
tyle	-14275
▁Gre	-14276
▁dew	-14277
▁pel	-14278
brina	-14279
serve	-14280
table	-14281
▁Addy	-14282
▁Fold	-14283
▁Hopp	-14284
▁gaps	-14285
▁imit	-14286
▁lays	-14287
▁Aaron	-14288
▁Pinch	-14289
knowing	-14290
▁begins	-14291
▁meanie	-14292
▁Bananas	-14293
▁Sabrina	-14294
▁Soldier	-14295
▁bossing	-14296
▁failure	-14297
▁fingert	-14298
▁royalty	-14299
▁cheetahs	-14300
▁hairdryer	-14301
▁generously	-14302
▁frustrating	-14303
Fox	-14304
cra	-14305
ikki	-14306
ille	-14307
ller	-14308
▁Hay	-14309
▁Mal	-14310
spell	-14311
▁aims	-14312
▁hens	-14313
Change	-14314
asting	-14315
nowing	-14316
▁Baldy	-14317
▁Pasta	-14318
▁Steel	-14319
▁Marlin	-14320
▁fondly	-14321
▁Drawing	-14322
▁floatie	-14323
▁persuas	-14324
▁reunite	-14325
knowingly	-14326
▁Isabelle	-14327
▁schedule	-14328
▁Blueberry	-14329
▁encourages	-14330
Arr	-14331
inn	-14332
Geor	-14333
Peek	-14334
STOP	-14335
arct	-14336
▁Nic	-14337
▁Ser	-14338
▁non	-14339
fight	-14340
novel	-14341
▁Glue	-14342
▁Tere	-14343
▁prec	-14344
▁snoo	-14345
▁alike	-14346
▁French	-14347
▁Rabbie	-14348
▁crowds	-14349
▁yanked	-14350
▁tucking	-14351
▁connects	-14352
▁controls	-14353
▁judgement	-14354
▁Congratulations	-14355
Old	-14356
ori	-14357
rog	-14358
izmo	-14359
▁nav	-14360
Bravo	-14361
ircus	-14362
▁poet	-14363
ealing	-14364
▁bared	-14365
▁Oyster	-14366
▁Sharky	-14367
▁Whippy	-14368
▁whilst	-14369
▁Antarct	-14370
▁boredom	-14371
▁burrows	-14372
▁sharper	-14373
▁slowest	-14374
▁suppose	-14375
▁violinist	-14376
▁measurements	-14377
pin	-14378
ram	-14379
▁Ah	-14380
zzle	-14381
ively	-14382
ormal	-14383
▁BEEP	-14384
▁Wool	-14385
▁brew	-14386
▁Guppy	-14387
▁occur	-14388
indeers	-14389
▁France	-14390
▁receip	-14391
▁behaves	-14392
▁disturbs	-14393
▁granting	-14394
▁mastered	-14395
▁meaningful	-14396
▁scribbling	-14397
▁storyteller	-14398
AA	-14399
Aha	-14400
Ant	-14401
cet	-14402
▁tus	-14403
Money	-14404
maybe	-14405
▁Barb	-14406
▁Lacy	-14407
George	-14408
liness	-14409
▁Brand	-14410
▁caret	-14411
▁forms	-14412
▁dozing	-14413
▁rudely	-14414
▁Needles	-14415
▁daytime	-14416
▁shopped	-14417
▁tiniest	-14418
▁advertise	-14419
▁unconscious	-14420
▁Foreshadowing	-14421
Gl	-14422
tr	-14423
Pip	-14424
ergy	-14425
Order	-14426
upply	-14427
wreck	-14428
▁Mack	-14429
▁Roly	-14430
▁Aiden	-14431
release	-14432
▁Button	-14433
▁soothe	-14434
surprise	-14435
▁Melinda	-14436
▁clamber	-14437
▁pausing	-14438
▁bouquets	-14439
▁hesitate	-14440
▁official	-14441
▁sprinted	-14442
▁Scarecrow	-14443
▁Blackbeard	-14444
▁downstream	-14445
mes	-14446
Work	-14447
azel	-14448
Hoppy	-14449
azing	-14450
bread	-14451
owner	-14452
▁Rice	-14453
▁Gizmo	-14454
▁MooMoo	-14455
▁canary	-14456
▁looped	-14457
▁spoilt	-14458
▁tackle	-14459
▁allergy	-14460
▁punched	-14461
▁entirely	-14462
▁fountains	-14463
▁paramedic	-14464
▁brightness	-14465
▁unknowingly	-14466
uiz	-14467
moon	-14468
▁Cee	-14469
▁duo	-14470
Lilly	-14471
erald	-14472
othes	-14473
raser	-14474
▁Hide	-14475
▁asse	-14476
▁tink	-14477
Spider	-14478
▁Acorn	-14479
▁Hazel	-14480
▁Mixer	-14481
▁Salad	-14482
▁nailed	-14483
▁rinses	-14484
▁rancher	-14485
▁rowboat	-14486
▁Different	-14487
▁reindeers	-14488
▁tambourine	-14489
▁Remembering	-14490
Ban	-14491
six	-14492
▁SP	-14493
Wind	-14494
▁ome	-14495
cloud	-14496
▁Goat	-14497
▁doze	-14498
ilting	-14499
nknown	-14500
ourage	-14501
▁Dance	-14502
▁Relax	-14503
Warning	-14504
▁finest	-14505
▁mixers	-14506
▁remark	-14507
▁repell	-14508
▁Honesty	-14509
▁barbers	-14510
▁shoving	-14511
▁dangling	-14512
▁protested	-14513
▁skeptical	-14514
▁washcloth	-14515
▁Especially	-14516
Was	-14517
ham	-14518
leas	-14519
Dance	-14520
Peace	-14521
ereal	-14522
▁Dish	-14523
▁Grey	-14524
▁Sari	-14525
▁trag	-14526
▁Inchy	-14527
▁booms	-14528
▁polit	-14529
because	-14530
▁Gently	-14531
▁Snowfl	-14532
▁indoor	-14533
▁naming	-14534
▁virtue	-14535
▁papercl	-14536
sometimes	-14537
▁declined	-14538
▁prisoner	-14539
▁replying	-14540
▁sizzling	-14541
▁gardeners	-14542
▁reflected	-14543
▁improvement	-14544
Six	-14545
uld	-14546
▁ah	-14547
Drop	-14548
enus	-14549
leaf	-14550
tell	-14551
▁Ham	-14552
▁jig	-14553
▁eyeb	-14554
▁Blood	-14555
▁Store	-14556
▁Thumb	-14557
Perfect	-14558
▁Connie	-14559
▁Waddle	-14560
▁bowtie	-14561
▁draped	-14562
▁Teacher	-14563
▁coldest	-14564
▁grownup	-14565
▁rejoiced	-14566
▁speakers	-14567
▁Antarctica	-14568
▁receptionist	-14569
auce	-14570
sion	-14571
▁CDs	-14572
▁bay	-14573
▁neg	-14574
Enough	-14575
Speedy	-14576
▁Shiny	-14577
▁cuter	-14578
history	-14579
▁donuts	-14580
▁fellow	-14581
▁messen	-14582
▁ruling	-14583
▁wither	-14584
▁Indians	-14585
▁Moments	-14586
▁receipt	-14587
▁shivers	-14588
▁location	-14589
▁prickles	-14590
Clap	-14591
Nope	-14592
▁Gum	-14593
▁kil	-14594
▁Saus	-14595
▁crop	-14596
▁phra	-14597
ragons	-14598
▁cauld	-14599
▁nudge	-14600
▁Bitter	-14601
▁Miller	-14602
▁Prunes	-14603
▁cozier	-14604
▁patched	-14605
▁shaping	-14606
▁smeared	-14607
▁critters	-14608
▁repellent	-14609
▁souvenirs	-14610
▁reflections	-14611
Rub	-14612
eks	-14613
shi	-14614
Swim	-14615
▁Cord	-14616
▁Face	-14617
▁Fair	-14618
▁Mari	-14619
▁brim	-14620
Poison	-14621
udying	-14622
▁Curly	-14623
▁Style	-14624
▁Terri	-14625
▁Tutor	-14626
▁disre	-14627
▁unfor	-14628
▁Choose	-14629
▁Clouds	-14630
▁proven	-14631
▁turbul	-14632
▁darkest	-14633
▁rounded	-14634
▁sparked	-14635
▁swished	-14636
▁witness	-14637
▁befriend	-14638
▁cauldron	-14639
▁villages	-14640
▁caretaker	-14641
▁superpower	-14642
ispy	-14643
kick	-14644
▁Jed	-14645
▁Pri	-14646
▁Sec	-14647
▁huh	-14648
Spray	-14649
stery	-14650
▁Diane	-14651
▁Learn	-14652
▁Treat	-14653
▁chart	-14654
▁slope	-14655
▁Callie	-14656
▁posted	-14657
▁recite	-14658
▁bandana	-14659
▁cackled	-14660
fashioned	-14661
▁someplace	-14662
▁thrilling	-14663
▁unloading	-14664
▁politeness	-14665
▁sheepishly	-14666
▁vibrations	-14667
▁appropriate	-14668
▁cooperative	-14669
▁relationships	-14670
nas	-14671
ROAR	-14672
iffy	-14673
pick	-14674
▁bob	-14675
Mandy	-14676
▁Corn	-14677
▁seaf	-14678
▁sixt	-14679
Number	-14680
▁Fancy	-14681
▁blues	-14682
▁dents	-14683
▁plugs	-14684
▁torch	-14685
▁tusks	-14686
Squeaky	-14687
license	-14688
replace	-14689
▁mateys	-14690
▁mostly	-14691
▁passer	-14692
▁suffoc	-14693
Marriage	-14694
▁Scarlet	-14695
▁sprouts	-14696
▁director	-14697
▁drooping	-14698
▁sandbags	-14699
▁supports	-14700
▁Listening	-14701
▁artifacts	-14702
▁gentleman	-14703
▁expiration	-14704
▁surfboards	-14705
▁celebrations	-14706
ima	-14707
nine	-14708
▁Pad	-14709
▁Elli	-14710
▁joey	-14711
▁Wheat	-14712
▁title	-14713
▁dismay	-14714
▁eldest	-14715
▁hamper	-14716
▁overdo	-14717
gettable	-14718
▁Scruffy	-14719
▁complex	-14720
▁despair	-14721
▁skilled	-14722
▁untwist	-14723
▁whirled	-14724
▁Counting	-14725
▁antennas	-14726
▁threaded	-14727
▁breakable	-14728
▁expressing	-14729
gs	-14730
hys	-14731
Both	-14732
amps	-14733
loop	-14734
toed	-14735
Momma	-14736
chaun	-14737
ecord	-14738
seven	-14739
▁Nala	-14740
▁phys	-14741
alking	-14742
shirts	-14743
udging	-14744
▁grime	-14745
▁Basket	-14746
▁madder	-14747
▁ninety	-14748
▁oblige	-14749
▁Besides	-14750
▁seventy	-14751
▁shadowy	-14752
▁playdates	-14753
▁smoothness	-14754
▁sprinkling	-14755
Ad	-14756
Sky	-14757
▁Bon	-14758
▁Lil	-14759
▁vig	-14760
great	-14761
irley	-14762
owled	-14763
▁Push	-14764
▁crad	-14765
▁inqu	-14766
▁whis	-14767
Almost	-14768
Higher	-14769
▁Trudy	-14770
▁boing	-14771
▁solar	-14772
▁Sheila	-14773
▁eighty	-14774
▁pliers	-14775
▁loudspe	-14776
▁Balloons	-14777
▁drowning	-14778
▁Flutterby	-14779
▁operations	-14780
▁businessman	-14781
▁unforgettable	-14782
min	-14783
Carl	-14784
Pull	-14785
Neigh	-14786
▁Otty	-14787
ribbit	-14788
▁Benji	-14789
▁Shoot	-14790
▁Yield	-14791
▁fives	-14792
▁Ghosts	-14793
▁strate	-14794
Cleaning	-14795
▁obvious	-14796
rightened	-14797
▁concerts	-14798
▁dazzling	-14799
▁Somewhere	-14800
▁messenger	-14801
▁naturally	-14802
▁separately	-14803
▁turbulence	-14804
▁thunderstorms	-14805
nor	-14806
BOOM	-14807
▁Mig	-14808
Annie	-14809
Candy	-14810
endor	-14811
ucted	-14812
▁Cray	-14813
▁bask	-14814
▁Casey	-14815
▁Micky	-14816
▁Roary	-14817
▁antid	-14818
▁dumps	-14819
▁lasso	-14820
▁navig	-14821
[...]
